218a
1f5b
a293
a293
a293
a293
2293
21f6
2293
a293
2293
9923
a293
2290
1d05
2293
2293
a293
a293
a190
9f10
a293
2293
2293
2286
9efb
9d86
9f4a
2293
a293
2128
2293
204f
114f
2293
2293
a28f
2293
991e
9ccf
a293
a293
2293
2293
2270
a293
a0b1
2293
2210
2293
a135
a293
9f53
1c08
a293
98a6
8db8
2216
a283
a293
a293
2293
a293
2293
1c66
2293
965d
a293
a293
2293
a293
9556
9f1f
9dc2
2293
a27b
a286
2006
2217
a293
9bd6
a28b
a293
9d9c
2293
2293
a293
209b
2293
a293
a246
2293
208f
2293
2293
a20e
228d
1a8c
a293
a23e
a02c
a24c
9839
a10b
a293
a1f2
a22e
228c
222f
a293
a293
a293
a0cd
2293
20aa
9e75
2293
20b9
a293
2293
21dd
2293
a293
a293
2235
0b08
2293
1bf3
2105
a293
2293
2293
2137
a248
2062
a293
2293
2293
a293
2293
9134
a293
2068
11a1
2293
2293
a293
2293
a293
2290
a293
2293
a277
99fd
041e
a1ab
a055
a238
2293
a281
a293
a293
1999
1992
2293
a293
2293
2037
1d6c
2293
a14a
a288
90be
2293
a293
2293
a293
2293
a293
a28f
2293
2293
a293
2293
a019
2293
a293
a293
10eb
a218
a293
a1a9
a293
2293
2293
9e8b
a23d
a293
a293
113d
2293
a293
a293
a293
2293
2293
2293
a293
a290
a293
a293
2293
2293
2293
1f71
1d29
1e57
a205
a1ee
a168
21be
a293
a24a
a293
1fdc
1284
0ffd
2293
2293
a293
2293
a293
a18a
151f
214f
a26c
a12e
a293
a074
2293
a293
2293
2112
a293
a293
a293
2027
a262
2293
a293
a256
a293
2293
1e71
a258
a293
a293
2293
a293
2293
a293
2293
a293
a293
2176
20fa
2293
a278
a293
2293
a293
a170
2245
a28a
a293
2293
2293
9aae
20b7
a293
20db
2293
1ede
a293
9947
1c61
1c86
2293
1738
9f88
2293
a27f
2199
1876
1f7c
20cb
2266
a293
20c2
9d44
1b0e
2293
228b
a293
18a3
a293
2293
a1f5
a262
a291
2293
159f
a042
2293
1d84
1c89
0d5d
228c
a1f8
a293
a283
1dba
a01a
a293
a293
1f69
174e
2293
0ea4
a267
2293
2293
a293
a214
2293
1f97
1923
9822
a178
a293
2293
a293
9c9a
9e4e
1c7b
21b8
a293
94d2
2293
a0f7
2293
2293
a293
2293
a23d
a240
a26a
a0be
2293
a293
a293
a293
9158
a293
a293
a293
2293
a293
9fe3
228f
9852
1a14
1e65
a252
9de8
a293
a20b
8a09
2293
a293
2066
2255
2293
a293
a293
a292
a09b
a1df
2293
9e92
a1f1
2293
9146
a293
94fb
2293
1f01
2293
2293
2293
2293
20bd
a229
2293
2293
9f6f
a293
2290
2293
1f61
960c
9f91
a293
a293
a293
2283
1eb3
1d44
a293
a254
2293
9ed0
2293
a0de
2293
20f4
a293
2293
2293
1e63
1b19
2293
a1e3
2293
a293
1cf5
2293
2293
2293
2293
1970
a293
a293
a293
a267
a109
1876
1ed0
2293
2293
a293
1595
a273
2124
21a9
2293
9d0f
2293
2293
2048
a293
a293
1b27
a293
2293
2235
9db4
95ba
a293
2093
2293
a234
a293
a271
a1fd
2293
21aa
a293
1e55
a293
a293
2293
2143
a293
2293
a293
9fb2
a293
a293
a293
a20f
2293
a293
2293
2293
a06b
a293
2293
2293
9ff0
9f79
9e32
a293
2293
1da4
a293
2224
a148
9fe5
a291
a171
a293
1c50
a19e
216d
2293
2293
a293
2146
2180
2293
1e15
2293
1fa3
21d6
2293
a293
2291
a293
2293
2215
9615
2293
a293
2293
2293
1c1b
2197
2293
a293
a27e
9fe6
a293
2293
2293
a199
2293
a293
a293
9f2c
1c1c
a293
a09c
2293
2293
a293
a02f
a293
1328
2293
a293
1f35
2293
2137
8a76
1e65
2293
2293
a212
a220
2293
a292
9b10
9ab0
2293
910f
9980
98bc
a293
a293
a293
a293
a17a
a293
a293
2105
a293
2293
1ff9
2293
21a5
1d26
2293
0e49
2293
2293
1bdc
2293
2293
2293
2293
2248
2293
2225
2293
a293
a293
9911
a293
a293
a293
a293
2293
2293
a05f
2293
a246
2293
a293
a293
2293
a293
a293
a24a
21e9
1cb6
a0c2
2293
a17a
9f83
2283
a293
a293
20a1
9a6a
1eb9
2293
14b7
1d6e
2293
914f
2005
a248
2293
2036
a293
2293
2293
a293
a255
1733
2293
a293
a293
2293
2167
21cd
a293
2182
9ba4
1ec4
a293
a293
9d61
2293
a211
1f13
a28f
216b
14d7
207a
2293
21ac
2293
9d6b
21e0
a293
9b30
2293
806d
1da0
a293
9b42
2293
2186
9f9c
96f3
a293
2293
2293
a293
a293
1615
a293
1a78
204b
2293
a293
2293
2293
8e92
a293
a293
a135
20ef
2262
a293
1e6f
a293
a293
a216
a293
2293
2293
2267
a22e
2293
a293
1ff1
2293
a128
212a
a293
2293
a293
a282
a1c3
a1e5
2293
1c0e
a293
2293
2019
a119
2293
a214
a293
a293
a293
1807
2293
a290
1f78
a293
2293
20c9
2293
a293
a293
a283
17ed
a293
2014
9f5f
a293
1907
210c
a1a1
a161
2293
a293
2293
9c45
a293
a28f
1e43
a293
986b
9871
a21e
a293
a25f
a14b
a293
1c34
1355
1f06
2293
a278
1a5a
227c
2293
2293
2293
a293
9445
a293
9f5f
a192
a293
a098
2282
2293
a293
1c9c
a293
2293
1e86
a28f
a293
2293
a293
a293
9e7e
224a
2112
2293
a1f6
a293
a189
2293
1e66
19c4
a293
a293
2293
2293
889e
2293
2293
a273
21d0
207f
9d5f
2293
9de7
a293
2293
953f
9e07
206d
a293
a293
2293
a293
a280
a293
a21a
2293
2189
a12e
2293
a293
a24e
2293
1ffe
2283
2293
9f26
a094
9e31
9d34
1d4c
9ac5
2293
9761
a293
a293
2293
2293
2293
9fe2
2293
1bea
2293
2217
2293
9db5
2262
a1cc
2293
a293
9d85
213c
17b2
a28e
a28f
a293
a1a1
1de2
2293
a293
a116
2230
2293
2292
a01a
1e40
95e7
a293
2293
2293
a293
2292
2293
1ade
2293
a293
a293
2293
9c39
1c8d
2293
2293
1f0b
2292
1868
1c26
a11f
a293
225c
a1cc
a13e
2293
99f6
a293
2293
2293
a293
2266
9f1b
a293
99c2
2293
2293
2293
1dc7
2280
a290
225d
9a38
a240
a293
2276
2293
201d
2293
a16d
a22f
196e
2293
a293
a293
2293
20fc
2293
9aec
21dc
2291
a293
2293
2252
210b
a293
220d
a293
a293
a23a
9a2f
1b94
a28d
a293
a293
9e5c
a26e
a28c
201a
a293
2175
1925
2206
14ed
227b
a282
2173
a293
2293
9ca4
217a
1469
a293
2293
a261
a293
a0d4
2293
a188
226a
2270
2281
9e48
2291
a1dc
9c9b
a293
2293
1e0c
a1c2
96d4
2293
a293
1f4f
a0b5
a034
a293
2293
2293
1dc9
a292
0541
a293
9dad
a03b
9e59
1f59
a293
2293
2293
1e65
a1d5
21a6
2293
2293
a293
2293
2293
a1db
a288
2293
a293
9a9c
2293
2291
2157
9935
9f3f
2293
2293
a293
1e64
1a38
a293
2293
2260
2293
2186
2293
2293
a266
2293
a293
a293
a284
2293
96fd
a293
a0b2
213c
2293
a142
1bb6
a293
2293
946e
a165
2287
2293
a293
2293
a293
21e1
227e
a293
a1f0
1713
2293
2293
2287
a293
a1bf
2293
a278
a293
2293
a21e
a002
2256
a293
a293
2293
2293
9e4a
9eca
a287
a186
9864
2293
a293
9694
1eb0
2293
9b22
2293
a286
1eb7
a293
2233
1c7d
2293
a271
97e9
a007
2293
98d5
2274
2132
1e23
a293
a25d
1d20
2293
2278
2293
2293
a13f
9e8f
2293
228f
2293
a083
2293
a087
a293
9425
9a81
a293
a293
a012
1035
1e4c
2293
2175
a293
2293
2293
a291
a293
2293
a293
a291
2293
204b
2293
9b1d
a293
2293
2293
a293
2293
9ed9
2293
21f0
a293
1ce4
2293
a293
2293
a293
2293
a293
2293
201a
a0fc
2293
a293
2293
9df8
9f82
2293
228d
1a91
a293
2293
9dcf
2293
9e6b
9a7c
a247
21c2
9e36
2293
9ce0
a293
a293
a0cf
2293
a293
a19d
a293
a293
2293
a17d
2293
a293
2293
05d3
a293
a293
1abc
1e37
2180
2293
a0e0
2293
a293
227f
2045
a0cb
2293
a293
2293
1b76
2293
2293
99a2
a0fb
a293
2293
2293
a293
9a5a
196b
1c42
a293
21e2
98fa
9987
9f90
20a5
a293
1a28
970f
a293
222d
a293
2293
a284
201e
a293
2293
2293
a293
2293
a293
2293
a238
2293
2293
a293
9d5d
a293
1ee2
a065
a293
948e
223a
9050
a248
a293
2293
a09b
205f
2032
224d
2250
a157
a1e4
2293
2293
a288
8c70
2293
2293
a293
2293
8d02
2293
2293
a293
2293
227f
17e9
a234
1c66
2277
2293
a1cf
92d6
118f
a293
a28d
1d78
a293
2212
a27c
a293
2293
2293
8eff
163e
2293
a293
a0cd
1a75
1cbb
a293
9af0
a12a
9c0f
2293
19b6
2293
a291
a293
a293
2293
a293
a293
a293
a279
2293
2293
a293
a293
9ea7
9ba8
9f14
9cdc
a293
1f5d
92f1
2108
9b40
2293
2293
2293
a293
a293
2293
202e
14c4
a293
2293
a293
a293
a156
2293
9de7
20b0
080c
21ec
9df5
a03d
a293
1367
a1f2
a293
2287
a27c
9aee
2107
97f2
2049
a07a
2293
2293
2293
a293
225e
a042
a293
a1f9
2293
a293
0d6f
a293
224c
a293
a293
12df
a293
2293
0e00
a293
a1dc
a293
a293
a0f7
2293
18f5
a207
20a3
a293
a293
9ec4
9f59
9ebc
1f15
2086
a293
a27f
21f2
2280
2293
2279
21ef
20fb
a293
a293
9efb
a293
2293
2293
9d6a
a293
21ac
18da
2168
9c43
188d
2293
2293
2293
2293
204f
1daf
a203
9512
2293
9dbd
a161
990a
221a
21a5
2293
2293
a293
a107
9c30
9c90
2292
a293
2293
a0f8
2293
18f3
2161
186f
2293
a293
2293
a136
2293
a293
a293
1eb8
2293
9dcf
2293
1cfa
2153
2293
2080
2293
9e09
a20e
9f72
a1cc
a1f2
1fe9
a293
2293
a293
a1b0
172f
1dec
1cdc
1d95
a293
2293
a293
2293
a293
a293
9f90
2293
2293
a293
a293
2293
a091
212a
2161
2293
a293
9984
a293
203d
1047
a293
2293
2293
2293
1dca
a293
2039
2293
2293
a290
2293
88c2
94f6
a0dd
a293
a293
a293
9940
1df7
2293
a22f
2212
2293
a293
a100
20de
a293
1f8d
2293
1063
a293
a293
2293
a293
a293
1e85
17db
2293
2226
a293
a161
a293
2282
220b
2293
18b8
2293
1eef
1e77
a293
15be
a291
2293
a293
a293
2293
a293
a293
1d8d
20a5
135e
2109
2293
a293
a293
1802
153b
9789
2293
a293
2293
9f41
1e86
2221
9e4f
2263
2293
2293
205d
1fa2
20f3
1ed0
a255
2293
9e85
2293
9ea2
a0e0
a293
209f
2293
2293
a293
a207
21c4
a03e
a293
a293
a281
a000
2293
a293
2293
14a0
a293
2293
18bc
210d
1a41
a293
2293
8f90
2293
a293
a293
1d12
2293
a293
21b7
a1b7
a293
9990
9e4d
a233
2293
a1f9
a12a
9e58
9c2a
2293
2293
a264
2293
1cbd
a293
a041
2053
2293
a1ed
a293
a293
98b3
2293
9a71
2293
1bb8
a12d
221e
9ec5
a293
2293
9e3c
1925
a293
2293
a293
a293
1c17
148e
a293
2293
131f
a0eb
a293
a22f
2244
9f88
1fa8
2293
a293
2293
9c9c
2293
1866
2293
2293
a24a
2293
9eb9
192e
9485
2276
1937
2111
20db
a293
2179
a293
a262
2293
a11e
a293
a293
20d2
a293
a167
a293
a293
a293
2293
1c35
a0d8
2293
9af0
2131
a293
2293
a293
2293
a293
2293
18dc
2293
a293
a197
938c
1bb1
2293
a293
2293
a293
a293
2293
a293
2293
1477
a290
1f12
a170
a1fe
2293
a293
2293
8e5b
2293
1cee
9d8f
2293
a293
a19c
a293
2293
a1b0
a293
2293
a293
20df
a293
a160
a293
9c59
2277
2293
a293
2292
2293
2293
20db
a293
228c
9516
a293
2015
a293
9c3b
2293
21f1
2293
2007
a293
997e
9e31
a007
2185
a293
21fc
a255
a293
9db8
9a0f
a293
1c71
9e95
9849
21f9
2225
1e93
a210
a005
2293
a293
2293
a28c
a293
2293
a03d
9c29
a293
0ec8
186b
2293
227f
a293
20b9
a227
a293
a293
1cab
a293
2293
1e5d
a293
a18a
2293
20e9
a259
1b07
a293
a145
2293
2293
2293
2231
2293
9a53
9765
2088
a293
9a8c
9def
2293
228f
a293
95e3
21f4
2293
a191
9891
1f89
9be8
a245
a14e
a11f
a000
a293
2293
2293
2293
a293
214a
a293
a26b
1f29
a257
a293
a293
9f03
2293
223e
a293
a293
2293
a293
a293
9e1a
a202
9c67
2293
a293
a1d1
2293
2008
a274
208a
a293
a293
a293
21e7
a293
9ffc
2293
a293
a293
2293
2293
1229
2293
a293
a293
2293
9413
2293
a293
1e09
a0c0
a293
9d61
981b
2293
98c3
2293
a293
a293
1f3a
2285
a02b
2288
9f5e
a205
2293
a1e6
1f34
a293
2262
2293
2293
19dd
143c
9ac7
2293
2293
8147
a217
2293
2293
a293
2293
2022
a293
9dbd
2293
9aa1
2293
a293
a26d
a1b5
2193
a293
2293
1fbb
a293
2293
11c5
a156
21af
2293
a293
2233
15d5
a12a
228c
2293
2281
2293
2293
a293
21fa
215e
a293
2293
2293
a293
a1f5
2293
219a
a0e2
2293
a024
2186
a293
2293
2293
2293
2293
a293
a293
a293
a293
9dcb
a293
a293
2293
a293
9528
20be
2293
a293
991a
20f0
a293
a293
a22c
2293
a293
a293
2293
8d38
2293
2293
1eff
2293
2293
a293
a293
a293
2293
20e7
a293
a293
1721
a293
2293
a293
1939
21a5
2293
2293
1e50
226e
a11f
157a
a27f
a293
a293
2293
9e9f
a234
9b0e
a293
18e8
a293
a293
a0e3
2121
9f62
a293
9df7
1858
2293
a1f7
2293
1c4b
a284
21cf
1ac9
a150
9eef
2293
2293
9ec7
a293
0cb9
a1fa
20ca
973c
9ef6
2293
a293
a293
214f
9e8f
2293
a293
a293
2293
2293
2027
1b02
2293
9f29
20bf
a1d0
a132
a242
9abe
2293
a0db
a293
a293
9c9d
a293
2293
98ea
2293
2293
a293
220f
2293
9e63
a293
a293
1343
9dbf
2293
a293
a290
a13f
2293
2293
1642
0d93
2293
2293
a22f
9cb6
a293
a293
2293
2214
2293
2293
9c8c
a111
1c98
2293
2293
a293
20a2
a293
2293
a1a0
2293
1e29
2293
1497
2293
9063
9f5b
9c1f
1757
a0e8
1008
a167
1ef3
a293
a293
a293
2293
a293
a293
2293
2293
a1de
a293
2293
a1b5
a293
90fd
120e
a293
9c95
9939
2293
a293
2214
9df9
a293
2293
2242
2293
a293
a293
2258
2024
2082
21c7
a293
2293
a1d7
a293
a27e
a293
9eec
2293
20eb
1c22
2293
a293
a293
2293
9e2a
a293
206b
2293
a293
a293
a255
9ee1
2222
2207
a1d5
2293
a293
a28c
a293
2293
a287
2293
9401
a293
97fb
1adc
1ba6
2293
2293
a293
a256
a293
a1c8
a293
2293
2265
1923
9a24
2293
2293
2293
2293
2293
a28b
9f60
97a9
a18d
2293
1405
9738
a293
a293
a293
a293
a293
2293
998e
20ba
a293
2293
a293
2293
0024
a254
2293
a267
2121
988a
a293
2293
2293
a293
a293
a22b
2227
a293
a293
9888
2293
a1c1
a12e
2293
225c
2293
a284
a293
2293
2293
1e65
2293
2293
a293
a119
2293
a293
20e8
a209
2293
2293
21b0
227a
2293
2111
2293
a293
a1e0
a293
2161
2293
221f
1d2a
a293
9fb3
2293
a293
2143
209a
a293
9b8f
0e6d
a227
2293
a293
9c83
a293
2293
2293
a293
2001
a293
9c19
1eaf
a1b8
a293
a293
a28f
2293
a293
a293
a293
a293
2293
1fa3
a21a
9f47
2293
0b75
a293
a293
a03a
2293
21ec
2293
a293
1c11
2293
a00a
2293
2244
a293
a047
a1b6
8664
a293
a293
a0ef
2041
2206
9c22
1c16
1e57
2293
a136
1c64
9db0
212a
a293
2293
1ee2
2293
a293
a293
a293
a293
21db
a286
a150
a0dd
2293
a284
96af
a22a
a1d8
a042
2293
954d
2293
a293
2293
139e
1f59
a0dd
1ff9
a293
a293
2030
98fa
1f45
a293
a293
9cf1
220d
0f23
a293
a147
2026
a24f
a293
2207
2290
a293
2280
a290
1f78
a293
a1f4
a293
a22c
9eb4
205a
a293
2293
2293
9f3e
20d0
a293
9e7c
2293
1cc8
a293
1421
2293
a16f
a293
a293
1886
2293
a26b
9d51
9cac
a293
a293
a293
a1d5
a293
2293
a293
2293
1f90
9c43
8541
227b
204b
a207
2210
19fb
9feb
a293
9ea7
9c58
9e08
a142
a293
a293
2293
2293
209f
a293
a01f
1c5e
2224
9c58
1ca7
a293
a293
a229
a293
a293
98c8
a293
a293
2293
2118
2169
2185
a293
2293
a293
a293
21e0
2293
2293
2293
a293
a293
a139
a293
2293
221a
2293
1d73
a01d
21c9
18a3
2000
a293
a293
9f33
a293
1d29
a006
9e5b
2293
a293
2293
2293
a293
2293
20c4
a293
a293
a292
1cf1
1b7d
9c82
2293
2293
a293
2293
a293
a128
2261
a293
a1aa
1f6f
2293
2293
9e57
1b27
2293
1e40
2289
2293
a293
a293
a19d
8a52
2212
20a1
a293
2293
1d19
2293
a293
a293
a222
2293
228d
1023
2293
2293
1daf
2293
a293
a109
9c89
a293
a293
2190
a20d
15a8
2293
a293
2293
a293
a293
21c3
a257
2155
a293
9d73
a293
a291
21c7
2293
2293
209d
2293
2065
21f8
914f
2293
226a
1faa
a293
a061
2293
a293
2293
a293
a291
a293
a293
a293
a27a
a285
a293
219a
224a
a293
a0fc
a1cf
2293
a1d8
a293
a293
a293
2293
2245
1f8a
9af0
2048
2293
a293
873e
2293
a293
94c4
2293
a257
a293
9460
a293
940a
99b0
a293
a293
a293
2293
a277
218b
a293
a293
a0c0
a293
9977
2293
2293
a0b4
9e2d
21ee
2293
1d4c
2227
2259
2293
2277
1f49
1075
18d8
2293
a293
a293
9bd6
2293
a293
a293
2293
a293
2133
81d9
a293
224b
206f
1d56
a0d9
0855
02b3
21a0
9d27
2280
a293
9d96
204d
2293
a293
2293
1dea
a293
a293
a25c
2293
1da7
2293
2293
2293
9e2e
2269
a293
228f
21f8
a268
a293
228b
a293
a293
a293
2293
2244
a206
a293
227a
9c92
a293
2071
18d5
2293
206f
a293
a111
a22b
a293
1087
a293
1fc3
a293
20b3
a293
2293
a020
a293
2293
a293
a291
a23e
2293
a293
96a2
a293
2293
227d
a290
a20f
1531
1fba
a01b
2293
a293
2016
a16f
1453
2293
2293
a293
9f2e
1ebb
a150
a293
a293
2293
a089
a293
a293
2293
21a5
a293
228e
a293
2293
1943
a293
a293
2293
2293
205a
211e
2293
a293
a293
2293
2293
a293
1f5b
1bd6
a293
9a26
2293
a293
a268
a293
2293
a293
a293
2293
2293
a284
a293
15ec
9c70
a293
2175
1e20
2293
a293
a293
2293
a293
a276
2147
2281
a293
192a
128d
1fae
2293
2268
a293
2293
2293
1d82
a184
a293
a272
20bc
a293
a293
214f
a21c
2293
a293
21ca
a293
21f2
a178
a293
2293
2293
92a8
2293
2273
a242
2293
a293
20e2
8e6d
20b9
1f06
2293
a293
2293
a08c
a293
a043
2293
2293
a293
2131
2293
a293
a293
1316
9d4d
2293
21ba
21dc
a293
a293
a1d5
1f03
10ab
2293
2293
2293
a293
9c8c
9fc1
a22b
2120
2293
2108
a293
18c8
2109
2293
a293
a047
a293
a293
9b6b
a11c
a131
9bb1
2293
2170
2293
2293
9f7a
1e35
a0f7
2293
a293
a293
192c
21e0
a185
2293
950d
1ffb
1ed0
1d17
a293
1e98
a293
a293
9dee
a293
a173
20e5
a293
980b
a023
a293
2293
87d0
9caf
a052
9f36
9afe
a08f
2293
2293
a293
209e
a293
225e
a293
a293
a293
1f18
1bfe
1b81
2293
2009
2293
a293
2293
a273
a293
2293
a293
2293
1935
1a8a
a267
209b
2293
a293
2293
a293
a293
a293
227c
2293
0cf0
130c
9c1c
a293
a293
a1cd
14fb
2293
2293
2293
2293
20e4
a0fe
2293
a293
9087
a293
2293
a293
9aba
9ee8
a293
2293
2293
1fb5
9e18
a03d
2293
a092
2293
a293
a293
a0b9
a293
a293
2293
a293
2293
2124
2293
a293
14ed
a293
a293
2293
a293
21aa
a293
a293
a293
178e
2293
2052
2293
2293
a19a
1e95
2218
2293
2293
a122
9a43
2293
a293
2220
a293
2293
a293
a291
1e16
a293
217e
a293
2170
1f7a
2293
a293
2293
1d0d
a293
a193
1f9d
2293
2293
2293
a28d
2293
221a
9cd1
a293
1f13
21aa
1acc
2293
a293
2293
227f
a161
1bd8
0c03
9e3a
2293
a034
1ddc
2293
9fa1
2293
1dc5
2293
9d08
a284
2293
2293
a293
1898
2293
2293
2293
a293
a293
9af9
2292
a293
2293
a0e0
a16d
2293
2286
a293
a04f
2293
209d
1f68
227e
a136
225d
a293
2293
a293
a1c0
a0ce
a293
a217
a293
203a
a293
2293
210d
a280
20aa
2293
2293
2164
2292
a293
a293
a293
2287
a244
2261
a28b
2293
a243
2293
2293
a22a
1eb1
98fe
a293
2293
1f83
2293
2293
9ecb
1ff1
2139
2293
a014
a293
1af0
1c63
2293
2293
18b1
a293
211a
a265
2293
a086
a139
2293
1a43
a204
a291
a293
a293
9272
1b66
a293
a293
9ecf
a24e
a293
9524
2293
12cd
a293
9c61
a269
a293
17ae
2293
228c
9c5a
2293
9c07
20fe
2293
1469
a293
1e11
a293
a0f4
83d6
1bca
a293
a293
1eba
2293
2100
a293
a293
1cf7
9ad0
2293
1efc
a243
a1e6
1682
2293
96ab
a293
2293
2293
2293
2293
2293
8dca
21ea
a293
1d31
a261
1e50
1ed0
a293
a293
227a
2289
a293
218c
2293
a293
2007
2293
9d9f
a293
2293
2293
2293
2230
215d
174a
2293
2014
2293
2291
986f
93b9
a22b
a293
a293
212b
a289
1ef7
2293
2293
a293
8147
a178
2293
2253
a293
1884
2293
2293
2194
9ce5
2084
2293
2157
2283
2293
a1bb
a293
a293
21b3
2293
2293
a293
2293
a293
a278
1ecb
a293
2293
2106
a293
2293
a293
a293
a293
a113
2293
1fef
a293
a293
a1a8
9f21
21d8
a293
a293
2293
2293
2293
9dfc
2293
2293
a293
9e7d
9e9b
9e85
a169
a293
a293
9fb9
2293
a293
1cb2
2293
1d2b
9dcd
20fb
18e8
2293
1f56
a293
1f70
a293
21ec
95be
2293
a293
1d0b
a03e
a293
2293
a273
a040
2293
a1eb
a293
a293
1da9
9ebb
a293
a293
a293
157a
9370
9c36
1fa2
2263
a1c6
2293
a14e
9dde
1eeb
2263
a293
97d7
2293
a293
a293
1b4f
a293
2293
98b3
a293
a293
2293
2293
2293
1fef
1804
1b56
a293
9d9d
a293
1eaa
a293
9aac
2293
a283
2293
1ec1
2293
a293
a293
a293
9f25
9b40
2293
212d
2293
2044
a293
1e37
a188
a21b
99a7
9e32
1eb6
1ede
1ea4
21dc
2293
a002
a293
a274
2185
a210
a293
20ab
2293
a293
9a95
2293
1a97
9d0e
1e52
2293
a293
a109
a293
a1dd
1aa1
21cb
2293
2191
2293
2293
224d
a248
98b6
2293
2293
a15b
a293
9efe
a28a
9c04
a024
a293
9a93
a20e
2269
a293
9c92
a293
a1b2
2293
a293
2293
9c30
a293
a1ce
20b5
9ac3
a293
2293
9e45
a25d
2293
a293
a1b3
1e35
21e3
1706
9d5b
a293
a1f4
a293
a293
0c28
a293
1817
218b
a228
2293
2293
1d1b
2045
2004
2235
2293
a293
a293
9de4
1be1
2293
2078
97a0
a118
1acc
1f5b
204b
a293
2293
a02c
a290
a222
9cbe
a293
a293
a222
9a4c
2293
a293
a293
2293
216f
2293
a1b7
a1ac
a252
2293
a200
9950
218d
a165
a0ba
2293
216e
9ff6
2293
1c86
1da1
2293
2016
90fd
a293
82b3
2293
2293
2194
a25e
2293
a293
1f20
2293
a0e3
a293
2293
9ad0
21a5
a293
17a0
a0f9
1e87
9d6e
a22a
a12d
a293
1fcd
1a6f
2145
2293
2293
2293
a293
2293
1e48
21a7
1d91
a01c
1b27
a293
2293
a293
9e35
20a0
2293
a293
1ed5
a293
a293
a16a
9b6b
8831
a286
2293
a293
a1cc
2033
a293
2293
2293
2205
a293
97a0
a293
1460
1445
2214
9b2d
a293
2293
a180
1903
2293
91f3
a293
a235
a293
2293
a172
21db
1d8b
a293
a293
2293
98e5
2293
2293
21aa
a293
a152
2293
a0c2
a293
2293
a293
a293
a293
a20a
a1c2
9d82
a247
a293
a28b
a220
1cd1
a150
1f26
2293
a293
a293
2293
a293
9e01
1826
21f7
130c
1d61
1ed5
a277
a22e
9891
20c9
2293
9659
a293
2293
2293
2293
2293
21d5
a1d3
2293
a293
a293
a1e0
207a
a293
2293
9ce9
a0eb
9ebb
2293
a293
a293
a293
2293
a293
21bd
1c49
2276
9fc7
a293
1bef
209d
2293
2172
2293
a1b6
9fa2
9a7c
a293
1fac
9e32
2293
2293
2218
2293
2293
a293
a293
a293
9dba
a293
1fcd
2293
a293
a293
1e04
16cb
1ce6
a293
1b42
a0d9
a055
2293
a293
a23a
1fb2
2293
1cab
2293
9eaa
a293
a245
2293
2293
a293
1858
a293
a293
2293
1ee3
a17a
21ef
a293
2293
1b76
2293
a243
1999
a293
1e63
9d8c
2293
a293
2293
1def
a015
a293
1fc4
a293
a293
20b5
a293
a293
2293
2293
a293
20c1
2293
2293
2293
2293
2293
222f
a293
a293
1b76
a293
2006
a293
a01f
970f
a293
2293
a27f
2274
2293
2293
1023
a293
9d85
a293
a293
a293
a293
9f8c
1df1
1e09
213a
212c
a1f0
2293
2293
2293
2293
1f7c
2293
13f0
2293
9a4c
a293
2293
a293
1886
225a
9de9
2293
a293
2293
a293
2293
a293
2193
1a1d
a293
2293
a293
21ee
2293
a28e
21fe
2179
2293
2293
a0c9
228d
219a
9b00
a184
2293
1f44
a293
a293
a1e7
a202
0fd9
a1ed
a28f
2293
a293
21fd
2291
2293
1ee2
2293
2293
a293
14e9
a293
9dbe
a285
a293
a293
2293
a289
a293
2147
20dd
1901
9ec4
a293
2293
1c92
2293
2293
a293
a293
a048
2293
1cf1
9d53
a292
a293
2293
2181
2291
14a5
a282
1d10
21c5
a293
9063
1952
228c
a18c
228d
9f3e
a293
2253
9e64
225a
a293
a293
a27b
a293
a248
2293
21f1
9c9e
2293
a158
1a26
a293
223a
a293
a293
2293
a293
96e6
a04f
2293
1fc1
2280
99b4
a293
a293
2293
2044
1990
213b
a293
a293
2277
2293
1945
2293
a293
a293
9817
a293
a290
a293
2293
2293
2278
a293
a293
a1bb
a293
2293
a293
96f8
a293
a0c5
20cf
a273
2287
2171
2293
9eb9
2293
a285
21a2
a293
2293
a293
9528
2293
223e
2293
2293
2293
19eb
11d7
a269
2293
2293
2293
1d77
2293
2293
2293
2293
a293
2293
2293
a293
a293
2293
214c
9cc7
1e70
2293
2293
9876
8c4c
1c4d
0da5
20aa
a174
a293
a293
2293
2212
a293
2293
21ff
a293
21d6
9f7c
9c07
a293
2293
2293
21c9
a293
2141
a169
2139
2293
214f
21e4
200d
892f
16af
a293
9c86
2293
9bf3
a17e
9ff1
217a
a293
1f5a
a072
1e4c
a020
a293
2293
8b99
a293
a293
a205
2293
a293
a293
20bc
a13c
2293
a05c
1d12
2293
a293
a293
130c
a293
187b
2293
2062
2073
1a1d
2293
213a
a293
2293
19bd
1e0e
1fa1
a293
a061
a293
2293
2293
a293
a0a6
20ce
a0b9
2293
a219
209b
1be5
1bd3
2293
a293
2047
a293
1fd2
2293
9caf
a1f4
a293
2293
a1cb
a293
9f39
9a83
2293
a293
2293
1972
20e6
2293
13f9
1f36
9fa6
1c9e
2090
a293
218b
a293
2293
a1d5
a229
2232
2291
a293
a293
227a
1ec5
0b51
a293
1f02
a293
9ea4
2293
216c
2293
1dac
2293
18f8
2293
9f53
a293
2293
2293
21d6
a293
2096
2293
a293
2293
2293
2244
a293
2293
9fa1
2293
a284
2096
a01f
8e80
9a8c
a1d0
1413
a293
2210
206c
a293
2293
201a
2293
a293
21e1
a293
228b
a293
a293
2293
9220
2293
a212
a26f
a293
1dec
2293
2292
2293
9c30
a293
2293
9fff
a293
a080
a293
9ec9
a286
2293
2293
a293
a293
a293
a293
2293
a293
a28a
1cd0
9b49
227a
9b1b
2293
224d
a101
1d6b
1797
a293
2293
1fa4
2092
a1f6
2293
a293
a293
a293
2293
9ae2
2293
a275
a293
a293
2293
2293
9f58
2293
9dd2
a15e
1868
2293
2293
2293
2293
a293
9fd5
0cf0
a293
a293
a293
8f5a
1ade
a27c
a293
a293
a233
92bb
2293
a293
a293
9367
2293
2293
a293
a1ea
a293
a293
1d29
2293
2293
a293
a0dd
1e7c
a293
1a83
a07c
2293
a293
2293
20f4
2196
21c7
2293
a05a
a1e7
2293
2293
2293
2293
a1db
2293
a293
222e
2293
a293
1f10
a269
a256
2293
a293
221b
a293
20f2
2293
2293
116a
a293
2293
2293
2293
a293
1551
20e2
2293
a293
2293
a20b
a293
a289
a293
2293
207b
2293
a266
a293
a293
2293
1e9b
2191
a293
a293
2293
2293
2293
9b59
a1f4
a291
2293
a293
95e3
18ca
2082
9d55
a293
a293
213b
a0ad
a293
9c5e
9cca
a293
a28b
21fc
a293
179c
95e3
20ee
2293
1cc2
9619
a0c1
a293
a293
2293
a293
9bdf
a055
a142
a293
9f89
2292
a252
2293
a293
224c
a293
a065
a09b
9d33
2293
2293
2110
2293
a293
a1b5
2293
2293
a293
9c86
a184
2293
2293
2293
8f6c
98bf
a08f
a293
2293
221c
1caa
2070
a293
a293
a293
a293
2052
212e
2293
a293
a293
2290
a1cd
21dd
2293
a293
a293
a292
2293
a293
2293
20b1
2293
a206
2293
2293
217e
2293
1a0b
a293
a293
a293
2011
2001
a107
2265
a293
a20f
2292
221b
a274
a293
a0e3
2293
2293
2293
2293
a1ee
a21b
a25f
a293
9f60
a26d
94bb
a293
9efa
154d
2293
2293
1395
a293
a238
221e
2284
9ef4
21ad
2293
2293
9f83
2124
2293
a1f9
9a0b
a293
2090
a0a0
20fd
217c
2293
a293
a293
a293
2293
223b
2293
2195
a293
a293
2293
1f20
a275
2293
2291
a293
a133
2293
212f
2293
2293
a293
2293
2293
228c
1cd6
a293
a293
2293
2293
2293
a258
a293
a293
a293
a293
a293
a293
11e0
21f6
2293
1da7
a293
901a
a293
2293
a293
a0bc
a293
2293
a280
a1f0
2293
a13a
20df
20fe
2293
a04f
21fa
11c5
a0d4
a0de
214b
2293
225a
a293
a25f
9d8c
a276
2293
a293
2293
2293
193c
1a7e
2284
1050
2293
2077
a293
a293
2293
9f41
2293
a293
1daf
9cff
a293
20fd
2058
2293
a293
a293
a293
a293
2092
2293
2293
2293
a293
a293
a293
21f4
2293
2069
a293
a293
a293
a293
9d7d
152d
a269
2293
140f
1e2d
a293
2293
a293
2229
21de
a276
2293
2293
2164
a293
222c
a293
a293
a293
2293
a293
1bef
2293
a293
a02f
9272
a293
a293
2200
2293
2293
a293
9f85
a284
2293
a293
a25b
21d4
a293
2293
9425
a293
2293
2293
2293
a293
2293
2202
2293
a28f
9a88
2293
1b4f
a21a
9cc3
9fa6
9df4
2293
a293
a293
2144
a293
a293
2293
a293
a293
9e4e
a293
2266
2293
a287
a293
9a33
215f
9d4b
a293
a293
a259
2293
a293
2293
9b09
a26e
a293
a293
a293
a1a7
2293
a003
a293
a293
9528
214f
a293
2293
96c1
a0a8
1e79
a25d
a293
2293
2293
2293
2293
a0f1
2293
a293
a252
a293
2293
0787
a293
1d13
a293
1eb2
a293
a293
2137
a293
1d2f
2293
9c8b
01d9
953b
1ff4
9f6a
a293
a293
a293
9888
a293
9ed2
a28c
a293
a293
9e1b
a14d
a293
2293
a293
a293
2293
2293
a293
99a0
a293
a293
9c8b
2293
2293
a293
2293
a293
a293
9f27
a293
a292
2293
2293
a293
1e01
127b
2293
2293
2293
2293
9e07
a293
a1ad
1eaa
a267
a293
a293
a293
2293
a182
2293
a293
a132
20a1
a293
a293
17a5
a293
a293
1ee6
2293
1972
9fc5
a265
a293
a293
19eb
2293
a293
2293
2293
9e1e
9c67
21c3
2293
a293
a0ff
9eec
2293
220c
a293
1d86
2293
9eb8
a293
a293
a25f
2293
a293
a02f
a293
a293
a293
2083
173c
20db
2293
a293
2293
2293
a293
a293
1b17
2293
a293
a293
a293
2271
9f94
a293
2230
a223
2293
a293
a293
9b62
a293
a293
a293
a293
2293
2293
a019
a293
2293
2293
a293
a293
a293
982d
a293
2293
2293
a061
a22b
a293
a293
a052
2293
a1e8
9cdb
8f90
914f
1e70
a293
2293
9d3c
1d58
2293
2293
2219
1b52
a293
8ca7
20fa
a134
a293
2257
9d6d
1e66
a293
0c82
1f1c
215c
2293
2293
21c1
a293
a293
a293
2293
a138
9ec2
219f
2233
a07a
a293
a293
a293
a293
2293
9943
2293
a293
a206
a1cb
a293
2293
a230
223c
2293
2293
2293
a293
204c
a060
1923
a293
a1c5
a293
9fac
2293
a293
a293
18ea
a293
9c0f
2293
2293
9804
212b
a0e3
a149
a293
2293
18fc
2293
a293
a293
a293
a293
1c35
2293
95b5
19eb
2293
a293
2293
a292
a04d
2293
a293
a293
221f
2293
2293
214a
2137
2293
2293
9ff6
a23e
2278
2016
a197
a293
2293
2293
a293
a293
a287
9ace
a293
a196
2293
9810
a293
19fd
a293
9e0c
2293
a293
a293
2293
a293
a21a
2293
2293
8b08
a293
2293
a293
a293
1f26
1ad0
20ae
a293
228c
a293
1401
a11a
a293
2293
1f8f
2293
8c82
1b6f
a293
18df
2293
9f6c
2293
1e31
1f6b
a293
a293
228b
2293
a293
0abf
1d39
a1d0
a235
a293
2293
2293
2293
2293
a125
a293
1a7a
a293
2293
1daa
9595
a293
9694
1eff
2293
a173
1822
a293
a293
2293
225a
2293
2293
2293
a293
a274
a293
a293
226f
a293
1cc6
2293
a0f4
a115
a293
a293
a293
a293
1d56
2293
1fc3
a293
991e
2293
20b6
2293
1f94
2079
2293
2216
a293
9d69
0541
228a
2293
a03a
a019
15f9
9797
a1b3
a293
a139
a293
a293
213c
a293
2293
93cb
2293
1ebb
2293
2293
a293
a293
9d01
a293
2293
1d2c
19a7
2293
a0b9
8d93
2261
a156
2293
a293
9cac
2293
a0ba
95de
9a9c
1647
a05c
9df8
9cd0
a293
a286
a25e
a293
9b54
1da0
9ace
a077
2293
2293
9c8b
a293
2293
a27a
a293
a293
a277
2213
2293
21b5
2293
21f2
2293
2293
1b02
a1e4
903e
2293
a153
9e72
a293
a293
a293
a293
225b
1f01
9e57
a293
a293
21ef
2293
21de
21cb
20da
a0e8
a1b7
a1a0
a293
2293
a293
2064
9f0a
1fc1
a1b0
a237
a293
a293
2293
1a85
9ea0
a293
17bb
2293
20db
a23d
2293
a293
2293
2293
2293
15e3
a293
a28d
a245
a293
a102
2293
a28c
9eab
9ef6
1b09
9dfd
2293
185b
2293
a293
a274
a293
a0d6
2293
2293
2293
2293
20b1
a1dd
a293
a293
a0be
2293
2257
9e22
2165
a263
a293
a293
a293
a293
1915
a293
2293
2069
2293
a293
a20f
2293
a293
9b05
a01a
a0e4
14bb
9d42
9b30
2293
a044
2293
9dc3
a263
2293
1de8
1c88
2293
2293
a209
a0c8
a223
2293
a293
a293
a27b
2293
2293
2286
a293
a1eb
2293
a293
a293
a293
2001
9e3c
2293
2293
2293
a21c
203b
a293
2293
208d
2293
a0ac
2293
a266
2293
a293
a165
20a4
2293
94c4
1686
9952
a293
a293
2272
21f2
1e65
1f83
2113
a293
9f47
9e07
1907
202c
a282
9920
9f0e
a293
2293
2293
21e1
9d22
1556
2293
2173
1f2d
a293
9c69
0feb
9e0b
14c4
2293
21e9
a293
a293
1925
207b
a293
2293
196e
a293
19ad
2293
2293
1fa0
2293
1a53
2293
218e
a293
a293
a059
a11b
a293
2293
1e6b
a293
a15a
a293
1a61
168b
a293
a293
2293
9ff0
a293
a293
a120
98a8
2286
2293
1f6a
2203
1cf4
9e9a
128d
228f
a293
2293
a293
2223
a293
2293
2293
2293
2293
2293
219d
2293
9cc8
a0a4
a293
2293
9992
a293
9ca6
a293
a115
a293
2293
a293
a293
a161
2293
2195
9e01
2293
210d
1e98
222f
2293
220b
1ea4
2293
140a
a293
2293
2133
2293
2293
2293
21eb
a12d
a293
99c2
2293
21f6
2293
205a
2293
a088
a293
985b
21c3
208c
2293
2293
21e4
2293
a293
a293
a293
9ced
a265
a27f
2293
a0d9
a293
1c79
205d
2293
2210
1f50
1cc7
2293
a128
a293
21fa
2293
2293
1e92
2275
2293
2181
a293
a293
2293
2293
a0de
a102
a293
2293
99b2
a20d
2293
a293
8c4c
a293
9075
2108
a293
2293
2293
2293
2008
2293
1c80
2293
2293
a293
99c2
18b6
2293
a01d
a293
2293
9fa8
a293
9e53
1b30
a27e
2293
a293
1090
2293
a293
a293
989a
a293
a293
2293
2292
1c69
a293
9cdd
a0e8
205e
9edb
a293
2293
a187
2293
2293
9cc8
1dbe
a1f9
2293
2293
1c3d
a0b6
a293
2110
a0b0
1cf2
a293
2293
a151
91aa
a293
2293
a274
a293
a235
a157
a26f
a248
9dc6
a293
a293
a293
2293
9f4c
2293
a293
2293
a212
2293
a293
9a61
a293
2293
2293
228c
2293
0f7e
2293
a293
2293
a293
2293
a293
2293
a293
a293
a293
1063
21ca
a293
a293
2293
9e77
a293
228d
86f6
2293
2293
2180
2293
2293
a293
9afe
2293
2293
2293
a293
a293
a16a
2116
a238
2293
a293
a293
9c66
a293
a293
a293
1e05
a293
2293
2293
1ebc
a293
2293
a293
2281
98df
2293
a279
a293
a293
a271
213b
2293
a293
2212
a293
a1fe
a293
2293
2293
a255
a293
1dd5
a293
2293
9d8d
21c4
2293
2048
a293
96d8
1e85
12bb
a293
a293
a283
2293
8fb5
1f93
1f38
9826
a26f
21e0
2293
21b6
2293
9f1d
2293
225c
9e22
a226
2293
a157
2293
8d81
a293
973c
a28c
2293
9c89
a293
2293
a293
0e12
2293
223d
a293
a293
1ac7
2293
a293
a293
2283
2293
a293
1866
2293
9a9e
2293
9949
a293
2073
a280
a26e
a293
2293
9dfd
a293
a293
2293
a293
a293
2290
2293
a0d6
9d5f
2293
9c08
9dbe
2293
2293
2283
a293
a227
2293
2139
2293
2030
a293
223d
a293
a0f6
1c88
1cff
a293
9c27
a254
2286
a293
9972
a293
1ff4
2293
2170
99cb
a293
2293
2293
8c4c
a293
1962
2293
9fc4
2293
a293
a293
21c8
a293
20c2
a293
a293
2293
2293
2291
a1d1
a278
2233
a277
a293
9ab0
a293
a1b6
227b
a293
a293
9b84
a293
0feb
a293
2293
147c
2293
a293
a059
21e4
2293
a0da
a293
138c
a293
2026
a293
a293
a293
a278
2293
2233
a291
2150
2243
a293
2293
9d4a
2293
946e
9b6b
a154
2293
21ce
1c00
2293
96a6
1f18
97a5
a293
a1a9
9f92
203f
a293
2293
9a4f
2293
a050
20bf
a044
a293
a293
2293
2293
a293
a293
1dfc
2293
a293
a293
2293
9c8b
a293
a293
a293
2293
a293
2293
9d31
2293
a1e6
a293
a293
2293
2293
1b22
9ef4
2293
2293
21d9
a293
a293
9c89
a293
20bd
a22a
a293
a227
2216
2293
2115
a293
2293
9cdb
a293
2293
2293
2293
2111
a0af
2293
2293
156d
a293
1ee6
2293
2293
a293
2293
228d
2293
a260
a26b
2293
1512
a293
a247
2293
2293
2293
a199
2121
a293
a293
a293
a293
a293
1baf
1485
2293
a293
21ea
a293
2252
a293
99fd
9c98
a152
2293
1ea6
a293
205f
2293
a293
a012
2293
a0b1
1b81
2293
a293
a293
142a
96d4
a293
2293
a293
2293
2197
2293
a293
2293
221d
2293
2293
2188
a293
a220
a293
a293
9884
a019
20ef
a28b
9cc2
a293
a293
a293
a283
2293
a293
1ced
2293
21de
9ffc
a293
990a
2293
2293
a293
2293
a28a
2293
2293
a293
1284
a293
2293
2293
a293
225d
a293
2278
2293
2293
2293
2293
981b
2293
2293
a293
a293
a293
a293
9c06
2293
a246
a213
a293
2277
a06b
a278
a1ea
a290
a293
a293
a293
1800
9fb2
a291
1dc0
2293
1d96
2293
2096
a246
a293
2293
a1ec
a13a
2293
a293
a293
2293
2293
a293
a26a
a206
20b1
a293
a293
9ccb
2293
1fef
12d6
9f3a
9c10
a199
2293
1d9b
2071
21c3
1eb2
1af7
a293
2111
20f8
2293
9f56
2293
a0f7
21d8
2293
a27a
2293
a293
9f5d
a293
2293
a117
1dc2
a293
a269
2293
2293
2293
a06d
2293
05d3
998b
2293
2181
2293
223b
21e0
a293
97b7
a022
a293
a141
a293
a1d1
1949
a282
a165
9e08
2293
1445
2293
2202
8221
a267
8e92
a293
15ec
2293
a293
2293
a293
2293
94f6
209c
a0be
2293
227b
9f70
989d
2293
1662
2293
a20a
2293
a1a2
2293
2293
2293
a293
2293
1d59
a293
2293
190a
a293
a293
a293
2293
945c
9fab
a25d
2293
20a7
a293
a293
a293
2250
a202
2293
2293
2293
a032
a293
1e8d
2293
a293
2293
1cb2
1cb1
2273
98ec
a189
2293
a283
2293
a293
a211
a293
a293
a10c
2293
2293
9d02
2237
1de9
a293
a293
2293
9c9f
a12f
2103
1595
a293
a238
a293
a293
a28f
a293
a152
2293
a293
0a52
a293
a28f
a293
2293
2293
9e72
2293
8c70
a024
a293
2293
2250
2293
2293
2293
209d
2293
21b4
a1d2
9f13
a293
2293
a293
2083
2293
1dfb
2293
a1f0
a1b9
2293
2293
a293
a293
a293
2293
2293
2293
9d3f
20bc
2139
2293
2293
202a
a293
2292
20b0
a293
a293
2293
a293
a293
9b44
21b7
a293
a293
a153
a291
2293
2293
202e
a22b
1fed
a233
a293
a24f
a293
21c0
9d99
a1d0
1d28
a293
2293
a293
9a48
9b64
a04b
21b7
212f
19c4
a293
1911
a293
a293
a28d
a203
a293
9c67
9999
2293
2293
2293
a293
a291
a293
223e
207a
2293
9cd4
211a
1dce
2293
2293
a286
a22d
a285
a276
216c
a27c
1f84
a293
2293
2293
a293
9b09
2293
17ed
2293
2293
1cef
03d6
a293
2075
2293
a290
a293
206a
9b7f
2249
2286
2293
a19d
a293
21d9
2293
2288
228f
2293
1cca
2293
1e3f
a293
a293
144e
a280
a293
9ddf
a293
2293
2293
2293
a293
a293
a0f0
1fe0
a293
2207
2293
a293
a0a8
a28d
2212
219e
a293
2293
a135
08e6
2293
2293
9ced
a293
a293
9c40
a293
2293
a05b
a293
a279
9d8b
2293
a293
a293
a1ab
2293
a293
21bf
a293
2293
9a11
9ce9
a293
a293
9f3e
a06f
218c
a293
1f1e
2293
210d
1b9a
9c17
1c29
2293
a293
a293
2058
9dce
a293
9260
a18e
a293
a287
2293
9ccf
2293
9cee
976a
2293
a293
2286
2050
2293
2293
2293
a293
1ac5
2293
9c04
1c5e
a293
2293
21ea
a174
a293
20e6
a293
a293
a293
97f7
9f0a
92b2
2293
203b
a293
a293
a293
a1dd
2293
1c21
228d
a293
2293
a293
a293
99e8
a22d
a28d
2293
a293
a293
9da0
a293
a293
a293
9e75
a291
2293
9fbc
2293
0ae4
9d66
a293
a293
1999
2293
2293
1c48
a293
2293
2293
2110
2293
a293
a293
a293
9e03
a272
1f73
a293
1d4c
2293
a0d3
a22c
2293
a293
a293
2293
9ce4
a24f
21f7
9f15
2293
1eb6
2157
2293
a293
97e4
a293
21e2
a076
2293
9c29
1b96
2293
a293
a293
a293
223c
2269
a293
9c3e
9d45
2293
1854
a206
a293
2282
a293
a107
a154
2293
2293
a293
2293
a04e
2293
9531
2293
2293
2293
2290
2293
2293
2263
a293
95e3
0879
a278
a293
a293
a293
a293
2284
2293
a217
a291
9d86
2293
9d8b
a293
a293
a293
96cf
a293
a1ae
9f39
1e4d
9c48
a293
2293
2293
a293
2236
2293
a16d
2293
944e
a21a
a0d7
a293
a293
2293
a293
95cc
2293
2293
2293
21d3
1e9b
2156
a07c
9959
a064
1c35
2293
2293
2293
203b
a293
2293
a1a9
1f8f
21b8
9db8
2291
a293
2293
a293
a04f
2293
a293
9dda
1789
a293
a293
2293
9cf2
2280
180b
a058
a293
a293
a293
2293
17ae
a090
9f8a
a293
2293
a293
a293
2293
a0bb
2293
1dd8
962b
2293
a293
a293
223f
1eeb
1d31
a28f
9f82
21e3
a293
2293
2293
a293
9802
2049
1c98
2293
a1e1
a1b0
9395
2293
207f
2293
2201
2293
a293
a145
a293
a290
9f81
a1bc
225b
2293
21cf
a293
8024
1ec2
a293
a293
20b8
a293
2293
a293
a293
a293
a293
12cd
a293
9da0
2293
2293
1e50
1d50
a293
2254
a293
a293
a28d
a14a
a293
a293
a293
9950
2293
94fb
2293
a293
226d
a066
a293
227e
a293
1f37
201a
201d
2293
a293
9933
2293
9f14
a293
9cd0
99cb
a293
2293
a20f
a293
197b
2293
a293
2293
99ab
2293
9a41
2293
9a6c
9b27
a10a
a293
2287
a293
2293
a0e7
2293
16c6
a20f
210c
a293
a293
a293
a293
a293
a09f
a25b
2293
18ea
a04a
2175
a293
178e
0a2e
2293
a293
a293
21c1
9e5c
1ef6
a293
a293
17d7
2293
2127
97b7
a293
a04d
1b6b
2293
9a7a
2293
a293
2246
9dc1
1c9c
2293
a293
2293
2293
a1c5
9591
a293
2293
2293
a293
19a2
a293
a1cf
a293
a26b
a293
a293
1e31
a293
9c3b
a293
224b
a293
21c2
a293
9497
2293
a293
974a
9dea
1d9c
a293
217e
a293
a293
a1af
21f0
15de
a293
204c
a293
2293
202a
a242
a278
a03e
16dd
2293
a293
2293
a293
a293
2293
a25b
a293
a293
2293
1cf9
a26b
a215
2293
2293
2293
2293
a268
221b
2293
a293
20e3
200c
a032
a291
2287
a289
a293
a293
1f5b
a293
a293
a293
94e9
2293
2293
2293
2293
a293
a285
2190
2293
2293
a034
9f01
a293
2293
219a
a1ad
2293
2293
1f13
2293
225d
a0fd
2293
2293
1d78
2293
9a8c
1dae
a293
9d1b
20a8
2205
218b
a293
2293
a293
0ffd
2081
a293
a24d
a293
2293
2293
a293
2293
a293
2161
a293
a04f
a1b1
2293
2293
a293
2293
2293
a1db
9c63
9d13
2293
a293
9008
a293
1dc8
a293
a293
a293
a293
226c
2110
a291
a293
2293
a293
1b09
9abc
a293
9a1f
1ce4
21c2
a238
a293
2293
2284
2280
1f77
a293
2251
a293
184b
2293
a293
9682
9dd6
a287
20e2
8e25
a293
2293
a23a
a293
a20f
16f3
21c8
2293
2293
1f13
2293
a293
a138
a015
a293
a293
a293
9854
997b
1528
a28b
2293
a293
a293
a21d
a293
202e
1da0
a293
9e70
a065
2293
2293
a0be
2293
9f66
a150
1e8b
1b86
226f
2293
a293
2293
1f44
1524
99ad
1296
a293
13b0
a293
1721
a293
9654
2256
225d
a14b
2293
a281
21b9
a293
2293
a293
9c60
2293
2121
a25b
2293
206d
a293
a293
a293
a293
2268
a293
2293
a293
2007
9f07
a293
2293
a293
a293
a293
2293
2293
21bb
2293
2293
a293
9da6
a293
2293
a293
2145
2293
a293
226f
9c3e
2011
21b7
a27d
2293
2293
1f99
a293
9d12
a293
a293
20f3
a163
a293
1343
2293
1e42
2260
a293
21e8
2293
a293
a293
a272
21a7
2293
a293
a293
2293
2293
2293
a293
1fe2
9e75
a054
0221
16dd
2293
0787
20f0
a293
2293
a22d
a293
2293
2293
a293
1c56
2293
2293
2274
1cf6
2293
a293
a167
a139
2293
1d52
a1f2
a293
2293
2288
93b0
2293
a293
a293
9bca
2293
9eaa
9c08
a293
2293
9ec9
1e82
2293
2293
20c9
a293
21f6
9c8a
a094
8dee
2293
a293
1d77
2288
a293
a266
2197
20af
a293
a28e
17b2
1cd3
1670
a0b0
2293
1d33
2280
a293
2293
2293
1e6d
a293
19fb
2293
9f1f
21ed
a293
1d2b
a0c8
2278
918f
a293
a264
2279
a216
9f2c
a23e
2293
a27a
2293
a293
2293
2293
a293
2293
2166
2293
a205
a226
2063
0978
2293
a293
2293
2293
2293
a293
2293
2171
9c3f
2293
9cb8
a293
1591
2293
9eda
2293
a255
a1dd
2293
a293
a293
2293
2206
a293
2293
a293
20d7
20d5
20bb
2293
2237
a18d
2293
20e9
a1a6
214b
a293
a293
2293
21e5
a293
a293
2213
1568
1fbc
a293
a293
2293
2293
a293
2283
2293
a293
a15a
2293
a1e6
2293
a293
a293
a293
a293
2293
2293
21b6
a293
a293
2293
9e7e
a25b
217a
2293
2293
9a73
2293
a293
2283
a293
a293
a293
a293
2293
2293
21c5
a293
a293
2293
2274
a293
151b
a293
2293
a293
a086
2293
a293
1ff4
9b6b
a293
2293
a293
2293
2293
228e
1804
a293
2293
1cde
01d9
2293
9f85
2293
2293
a1cb
a25a
2293
9fb9
112b
2266
a293
a293
1afe
2293
a01f
2293
9b09
2244
a293
2293
2293
9e44
2293
2293
2293
a21f
2293
14bb
1b00
2293
1f1a
a22a
a21b
a27e
2293
a293
a293
2293
9e5d
90d9
8b51
98e5
a293
a293
9ffc
2293
a24b
2293
a293
2293
a293
a293
9e31
a0a1
a1c6
1efd
a28f
1e65
a267
a1b6
988a
989f
2293
2292
a0ef
a210
1bcf
2293
1f8f
19f4
a293
96cf
a293
2056
a293
a21b
1eba
2293
a119
2288
a293
a293
2293
15b1
9db1
a0e6
a293
a132
2293
a293
a293
8190
a097
2293
a293
2293
2293
2293
1a51
2293
2293
1615
9ccd
a127
9f33
a293
222f
2159
2293
2293
a293
2293
a1b7
9d29
a293
a293
a293
a293
2293
a293
2293
2293
2161
8ec8
2293
227a
a293
a26f
2293
a293
2293
a293
16c1
201b
2293
10be
a293
1fb5
2293
a293
a201
21db
2215
a293
a293
a293
20e8
2293
2293
1997
a062
858a
a293
a293
1d5f
a293
226e
2292
a131
1864
a293
2293
a293
2293
1f1c
2293
a274
a293
a293
a293
9cc0
2293
226e
a293
21f7
a293
a293
2293
a293
2293
2293
21fb
a293
a293
2293
1955
a293
a05d
2293
2293
2293
a293
1ed4
a293
2293
2293
2293
a293
1f08
9c13
2293
2293
a293
a293
a293
9c6f
a097
1dc8
a293
a07f
2293
2224
a293
a293
1ad9
9a18
103e
a293
2293
2293
a293
2293
2293
a1cd
a293
a293
2068
a293
2293
2293
a293
a290
1d77
1f45
2293
98f8
2293
a293
a293
a293
2293
2293
a293
2102
2293
2293
a293
2293
a293
a293
2293
2117
9e92
2293
9c47
a293
a293
2293
225a
2293
a19f
9c66
a293
a25a
20d3
a293
2293
21ec
a293
97db
2269
a293
a293
2293
a293
a293
1e35
2293
1f39
a293
2293
1e04
a293
2293
a264
2293
2293
9f46
a293
2293
9e2d
a291
1dca
20af
2293
a293
a293
9cbd
1f66
2293
2293
2293
2293
9f9d
a293
a293
a293
13c2
a293
a293
2064
a293
9e53
a11f
19c4
a293
1588
a293
a293
a293
2293
9d58
20cb
9dbf
a293
a293
9e09
977c
a233
2293
a293
a293
94a9
a173
2293
a293
a06d
a1f2
1cd6
2241
a293
2293
2293
2125
21f4
a293
a292
a293
2293
a267
a110
a293
a293
9f97
1a6f
2237
2293
2293
a293
a293
1905
a293
a262
985d
2293
2272
2293
a293
a293
2293
a293
15c7
2293
2291
a293
a061
2293
1de9
130c
2293
a293
975c
1f7c
a00f
2293
a1b2
a12d
a293
2293
2148
2293
2273
2293
a293
2293
a28b
a284
9afe
1b2b
a293
a293
a1d8
9662
935e
a293
1fe2
a293
2293
2284
a029
a293
2009
2293
2293
9c79
2293
a293
9741
a293
a245
1c5e
a293
2293
2075
9ab5
2293
2087
1adc
225f
9a21
9c7a
9d1f
a293
2293
1839
2293
2239
1023
a217
1989
2293
2293
a036
a293
a047
1f5d
2116
2293
2293
2293
a293
228f
9be5
a293
1e46
9ff7
9bb3
a293
a293
213d
a292
a293
2293
1e9e
1d90
a293
2293
2293
20e3
2293
228b
a293
9d5e
223f
a293
2293
a293
9d3a
2286
a293
2293
a293
2293
2293
2293
a0e8
a1c2
2131
2233
a293
a293
1fd2
a293
a293
2293
2216
a293
a00d
2293
2293
a293
2293
20f7
2293
2293
9ec5
1e32
2293
9c3f
208a
1011
2293
2280
21b8
9c19
8eda
2293
a293
114f
202d
a288
a293
a293
a1c4
a293
a293
a293
a293
21ff
9b76
a273
2293
2293
a293
a293
a218
a293
a1d1
a07b
a293
a293
2293
2293
2293
9fee
2037
2246
2293
2258
2293
a229
2293
a293
2293
a293
a293
a293
2293
9b24
13cb
9d0e
a291
a293
a293
a028
a21f
a270
a293
a293
9c73
a293
a293
2293
218d
2293
a037
207b
a293
a28d
a293
9c9d
a14e
2293
a293
a293
20d3
2293
2293
2293
a265
2293
2235
2293
2022
a0eb
a168
a276
2293
a041
1bb3
2293
a293
a293
a291
a293
2069
2293
a1db
2293
a293
a293
2293
a293
2293
a293
a293
9d22
2293
2293
a20a
2293
a0b1
a293
2293
1e15
1e72
a293
1809
a293
2293
a21c
2293
1706
2293
2279
1ccf
a1f2
21df
2293
21bc
94f6
945c
1884
a293
03d6
a21e
a0fb
a293
a293
215c
20b6
1ed1
2293
a291
a293
2087
a293
a07c
95c3
2293
2293
228d
a293
9972
a282
1cd6
a293
a293
21e9
21b2
9b76
a293
1c27
21fe
2293
a293
a293
a293
a236
2293
1fca
1f81
1f46
a293
9dd9
2293
2293
1ffd
2272
2293
a293
228e
2293
a293
2293
1ca4
9e88
1de4
a267
a293
1abe
1f30
189f
a242
a17f
a293
2293
2293
a293
2293
220c
2293
2293
a28c
2293
2293
9c8c
a1ee
a293
a257
1cd6
224e
2293
a293
a100
2293
2293
2289
a17e
9699
a13a
2293
93b9
2293
18df
a00d
2293
21e9
2293
a293
a293
2293
a1b7
9e98
9fd5
9f92
a293
9802
2293
2293
2293
1063
1fe9
1dea
2171
a293
a293
a19b
2293
2293
a293
2293
9f2c
a293
a293
2293
2293
2293
2293
a172
a232
a293
9e5e
2293
2293
a293
a27f
2293
2237
2293
2293
a293
a293
21dc
1e05
1da6
a293
a291
9480
2213
a1f2
203f
a293
2293
a293
a23d
a293
a293
2293
a293
2274
9610
a1a5
2293
a293
a293
a293
1ea8
1654
21cf
940a
a293
1b09
a293
a19e
1c88
2039
2293
219a
a0ba
1ed1
2293
2293
a1c3
2293
2293
20b9
a293
2293
2293
a293
a0fd
a293
2293
2293
2293
2293
a293
a293
a293
2293
a18d
9f36
2153
a1a6
a293
a12f
2293
a291
1063
a293
a293
a293
a293
226f
9c1e
8d02
2293
a293
a164
a293
226b
2293
2067
2293
2293
a047
9bcc
2293
2293
2293
1ff1
a293
a147
2293
1f46
a293
2293
2293
9745
a293
a145
a16d
123b
a293
a23f
9e5e
a293
1d9f
9fbe
2293
2278
2040
2293
a293
a082
2293
2293
a293
2185
a24c
2293
2293
a06e
16f8
a293
2293
2293
2177
20f8
9ec3
2293
a1f4
2293
9e29
a293
2293
2293
2293
9ae5
227f
9e3d
20f8
2291
a293
2283
2293
2293
2293
9d98
2293
a293
a293
21bd
a293
2293
a1a5
2293
99e2
a1b6
2293
2069
2293
2293
a293
1f30
1ec2
2293
a292
a293
21f6
a0f6
2293
2293
2293
9ca2
a293
2293
a293
1d01
a293
18ee
9fa4
a293
a293
a293
9896
227b
a26b
a293
a293
a293
a293
0abf
a1f5
2293
2293
1c56
20e3
a293
a106
a207
a1a6
a293
a293
2293
9d71
a293
a293
1ce4
a293
a293
228b
2293
2223
21c7
a23c
a23c
a23c
a23c
223c
221e
223c
a23c
223c
a236
a23c
223c
2226
223c
223c
a23c
a23c
1ba4
9a53
a23c
223c
223c
223c
a20b
a231
9fee
223c
a23c
2209
223c
06dd
0806
223c
223c
a23a
223c
9ea5
a235
a23c
a23c
223c
223c
21ed
a23c
958c
223c
223c
223c
a1ad
a23c
a17f
1fd7
a23c
a1c2
0efb
2225
a219
a23c
a23c
223c
a23c
223c
0e91
223c
1b87
a23c
a23c
223c
a23c
a008
a23c
1b0a
223c
a23a
a23c
2208
1cc5
a23c
a238
a23c
a23c
a1c8
223c
223c
a23c
2126
223c
a23c
9ebf
223c
a07f
223c
223c
a239
2239
20b6
a23c
a223
1a34
a218
12a8
9668
a23c
a23c
a115
223c
1fdb
a23c
a23c
a23c
1f5a
223c
223a
a1a3
223c
21e0
a23c
223c
2226
223c
a23c
a23c
1780
2021
223c
1100
21d0
a23c
223c
223c
212d
9f46
2236
a23c
223c
223c
a23c
223c
a0b2
a23c
2172
18a9
223c
223c
a23c
223c
a23c
223c
a23c
223c
a23c
9d61
1a77
1f73
976d
a13f
223c
a212
a23c
a23c
221e
1fc6
223c
a23c
223c
2239
9e1d
223c
1ad5
9d9a
9aca
223c
a23c
223c
a23c
223c
a23c
a0c8
223c
223c
a23c
223c
a0fa
223c
a23c
a23c
a11a
a129
a23c
a20d
a23c
223c
223c
2103
a23c
a23c
a23c
a234
223c
a23c
a23c
a23c
223c
223c
223c
a23c
a239
a23c
a23c
223c
223c
223c
221a
9d16
928a
a22d
a1ee
a159
223a
a23c
a225
a23c
1ec8
219c
2236
223c
223c
a23c
223c
a23c
a238
9a6f
223b
a195
9eec
a23c
a23c
223c
a23c
223c
1f06
a23c
a23c
a23c
21da
a23b
223c
a23c
a23b
a23c
223c
222d
a23c
a23c
a23c
223c
a23c
223c
a23c
223c
a23c
a23c
220f
9d56
223c
a23a
a23c
223c
a23c
a0f9
221d
a23b
a23c
223c
223c
1f8d
182c
a23c
181d
223c
171a
a23c
a234
1636
20b9
223c
1b95
a227
223c
a22d
1b2b
2170
21f2
11db
2234
a23c
2231
a0c5
a070
223c
20ea
a23c
1d67
a23c
223c
a23c
a1bd
a23c
223c
a225
9d35
223c
2098
a07e
9e60
2239
a206
a23c
a098
990b
9dfe
a23c
a23c
1ecf
20ae
223c
21fa
a23a
223c
223c
a23c
a23a
223c
1fe7
9861
21b1
9df3
a23c
223c
a23c
9e57
9d4e
1f51
2238
a23c
21af
223c
a1ed
223c
223c
a23c
223c
a101
a237
a23c
2156
223c
a23c
a23c
a23c
9f23
a23c
a23c
a23c
223c
a23c
1e19
223a
a22d
9e9e
1ea9
a239
9d0f
a23c
a23c
a111
223c
a23c
a018
223b
223c
a23c
a23c
a23c
21b7
a047
223c
10ad
a21c
223c
1d4f
a23c
1dbf
223c
221c
223c
223c
223c
223c
223c
a23c
223c
223c
a088
a23c
2239
223c
1e20
1d04
9d29
a23c
a23c
a23c
20e1
1ebb
a081
a23c
a23b
223c
a22f
223c
a08d
223c
210c
a23c
223c
223c
209e
2201
223c
a22a
223c
a23c
2175
223c
223c
223c
223c
1d00
a23c
a23c
a23c
a20d
a22e
9ce1
2233
223c
223c
a23c
91db
a23b
9e20
223c
223c
9f3c
223c
223c
1f05
a23c
a23c
222f
a23c
223c
2230
a212
9c55
a23c
2236
223c
a1db
a23c
a227
a0e3
223c
21e5
a23c
a03f
a23c
a23c
223c
223a
a23c
223c
a23c
a23a
a23c
a23c
a23c
a23a
223c
a23c
223c
223c
a227
a23c
223c
223c
a046
2175
9fda
a23c
223c
1d62
a23c
199f
1f62
a1ec
a23c
a1f1
a23c
a010
a126
2222
223c
223c
a23c
2239
20c4
223c
222d
223c
13c0
208c
223c
a23c
2239
a23c
223c
223c
20b8
223c
a23c
223c
223c
1f9a
2238
223c
a23c
a23c
1f29
a23c
223c
223c
a217
223c
a23c
a23c
a206
1b18
a23c
a082
223c
223c
a23c
a194
a23c
a0be
223c
a23c
1d2d
223c
1fa2
16f0
2208
223c
223c
a23c
18a1
223c
a21c
a239
2202
223c
1cf7
983d
a1fb
a23c
a23c
a23c
a23c
9e8c
a23c
a23c
1ebc
a23c
223c
99f2
223c
215c
9500
223c
9830
223c
223c
21a0
223c
223c
223c
223c
1f87
223c
2193
223c
a23c
a23c
2176
a23c
a23c
a23c
a23c
223c
223c
a03b
223c
a238
223c
a23c
a23c
223c
a23c
a23c
a23c
203a
a1fb
9504
223c
9c1a
1d20
223b
a23c
a23c
2239
a09d
2221
223c
9d60
9dc2
223c
9e0d
212a
a227
223c
2239
a23c
223c
223c
a23c
a23b
00b6
223c
a23c
a23c
223c
2225
2239
a23c
1926
a22f
11cc
a23c
a23c
a204
223c
8443
13b1
a223
1fcc
a20a
1de7
223c
21a6
223c
a0f9
2215
a23c
a1fa
223c
1d15
1df3
a23c
a21f
223c
2232
20f1
a179
a23c
223c
223c
a23c
a23c
1d9c
a23c
9946
2029
223c
a23c
223c
223c
98cf
a23c
a23c
20e9
2046
223a
a23c
2040
a23c
a23c
a17b
a23c
223c
223c
21c1
a23c
223c
a23c
0efb
223c
8d44
2217
a23c
223c
a23c
a23c
a23a
a1c0
223c
9e06
a23c
223c
2195
a185
223c
a216
a23c
a23c
a23c
9837
223c
a23c
223b
a23c
223c
9c72
223c
a23c
a23c
a23c
2221
a23c
21a6
204f
a23c
1de9
217d
9f8f
a117
223c
a23c
223c
99e9
a23c
a225
1ebc
a23c
99e3
2201
a23c
a23c
a072
a1f1
a23c
1500
1889
8efb
223c
a228
222a
223c
223c
223c
223c
a23c
a123
a23c
a1c9
a12e
a23c
a23b
2239
223c
a23c
210a
a23c
223c
213f
a23c
a23c
223c
a23c
a23c
2022
223a
21f7
223c
0bee
a23c
9e95
223c
9633
20c9
a23c
a23c
223c
223c
9dbf
223c
223c
a239
223c
2165
9a5e
223c
a235
a23c
223c
1cd4
a220
2237
a23c
a23c
223c
a23c
a23c
a23c
a19d
223c
223b
a215
223c
a23c
1e90
223c
9e43
223b
223c
9d56
a231
a227
9bbc
1aa6
9cfc
223c
a1ee
a23c
a23c
223c
223c
223c
a1d0
223c
21db
223c
223c
223c
a22a
2232
a208
223c
a23c
a1dd
20b9
21af
a23c
a23c
a23c
a23a
221d
223c
a23c
1ec3
1d77
223c
223c
1917
9837
1db1
a23c
223c
223c
a23c
223c
223c
940e
223c
a23c
a23c
223c
a208
2094
223c
223c
2228
223b
9a29
1fa6
a13f
a23c
1d23
a23b
9a6b
223c
a218
a23c
223c
223c
a23c
223c
a027
a23c
a195
223c
223c
223c
222c
2226
a238
1d73
a10a
a211
a23c
223c
223c
2103
223c
a17e
a203
a1aa
223c
a23c
a23c
223c
1e7b
223c
9d47
18c1
2212
a23c
223c
942c
2195
a23c
21d5
a23c
a23c
9c93
9982
217e
a23c
a23c
a23c
20d5
a23b
a23c
a016
a23c
222d
1cae
223b
9a60
223b
a23c
2171
a23c
223c
a230
2232
2194
a23c
223c
a028
a23c
9fbb
223c
98d4
223c
223c
223c
970a
220c
a1fb
a208
a23c
223c
221b
9c3e
a0fe
223c
a23c
1cfb
9590
1aa2
a23c
223c
223c
222a
a23c
20e5
a23c
9940
a0aa
9870
9c0a
a23c
223c
223c
21d2
a170
223a
223c
223c
a23c
223c
223c
a225
a22d
223c
a23c
207a
223c
223c
21d0
975e
a10f
223c
223c
a23c
0cda
a133
a23c
223c
1eda
223c
223a
223c
223c
a23c
223c
a23c
a23c
a23a
223c
a084
a23c
a145
213e
223c
a235
9de4
a23c
223c
a101
a235
2225
223c
a23c
223c
a23c
18cd
223c
a23c
a22b
221b
223c
223c
2136
a23c
a23c
223c
a23c
a23c
223c
a031
a1e9
223c
a23c
a23c
223c
223c
215c
9dc4
a23b
9f73
2229
223c
a23c
9d67
1fc0
223c
1966
223c
a01a
221f
a23c
222d
9ae6
223c
a23c
a12c
1d24
223c
a1e7
2235
21e4
1459
a23c
a218
201a
223c
223b
223c
223c
a1dc
1904
223c
223c
223c
a17c
223c
a1c7
a23c
1c60
a213
a23c
a23c
a23b
21cf
203d
223c
2238
a23c
223c
223c
a236
a23c
223c
a23c
a23c
223c
20a5
223c
9cbf
a23c
223c
223c
a23c
223c
a22f
223c
2222
a23c
9b07
223c
a23c
223c
a23c
223c
a23c
223c
1af4
a103
223c
a23c
223c
a1dc
a03c
223c
2225
21df
a23c
223c
a235
223c
a173
a1fa
a0ad
20a3
a23a
223c
a00f
a23c
a23c
9a93
223c
a23c
a23a
a23c
a23c
223c
a21c
223c
a23c
223c
99c9
a23c
a23c
2085
1c14
205e
223c
a23a
223c
a23c
223c
21d1
9b47
223c
a23c
223c
9a9d
223c
223c
a024
a171
a23c
223c
223c
a23c
9c43
223b
a212
a23c
2235
206d
1cb8
21fc
21ee
a23c
1fc5
9820
a23c
215c
a23c
223c
a23c
2238
a23c
223c
223c
a23c
223c
a23c
223c
a236
223c
223c
a23c
203d
a23c
1e30
9cd1
a23c
9da7
a19a
20c3
a232
a23c
223c
2107
18da
207a
221c
2169
a231
a234
223c
223c
a23c
a225
223c
223c
a23c
223c
9bbe
223c
223c
a23c
223c
2238
20ba
a1f0
a1c3
223c
223c
a23b
1dfe
987d
a23c
a23c
2033
a23c
2239
a22f
a23c
223c
223c
208b
a1bc
223c
a23c
a22c
a118
993e
a23c
1cdc
a1d4
9c12
223c
a017
223c
a238
a23c
a23c
223c
a23c
a23c
a23c
a239
223c
223c
a23c
a23c
a086
9e3a
1c02
9c92
a23c
98cf
2225
2224
a1b4
223c
223c
223c
a23c
a23c
223c
2106
9ad4
a23c
223c
a23c
a23c
0dbd
223c
a20e
222e
a234
2236
8917
1e3e
a23c
9d4b
a167
a23c
2226
a17e
a109
1cad
0f93
2235
9f20
223c
223c
223c
a23c
1a01
a18c
a23c
a23c
223c
a23c
98ab
a23c
21af
a23c
a23c
a195
a23c
223c
2239
a23c
a106
a23c
a23c
a214
223c
2210
a234
187f
a23c
a23c
a0d1
1e80
204c
21ec
2162
a23c
a235
20c9
223c
223c
223c
2239
2208
a23c
a23c
a02f
a23c
223c
223c
a239
a23c
21fd
1cb3
223a
a148
9a6b
223c
223c
223c
223c
21af
a211
a190
a033
223c
a1d7
9d23
985b
21ac
21dd
223c
223c
a23c
9f53
a228
a18b
223b
a23c
223c
a21f
223c
9614
2215
21b1
223c
a23c
223c
a230
223c
a23c
a23b
a19d
223c
a23b
223c
a1f6
21fa
223c
2239
223c
a20d
9f0f
97b5
a1e6
a235
2172
a23c
223c
a23c
a193
20b6
203f
1ecf
98a7
a23c
223c
a23c
223c
a23c
a23c
218c
223c
223c
a23c
a23c
223c
8c7f
2153
1cf9
223c
a23c
a0b6
a23c
1da3
a0f6
a23c
223c
223c
223c
9793
a23c
222e
223c
223c
a23c
223c
a131
1e2c
a0cd
a23c
a23c
a23c
9d9d
202c
223c
a23c
223c
223c
a23c
a224
214f
a23c
1e49
223c
2208
a23c
a23c
223c
a23c
a23c
9f91
2237
223c
2226
a23c
a23c
a23c
2236
2238
223c
221b
223c
a018
1a2d
a23c
2051
a212
223c
a23c
a23c
223c
a23c
a23c
2187
223a
a16c
1eb2
223c
a23c
a23c
2234
9e22
a0e5
223c
a23c
223c
a178
940a
223a
2167
21d9
223c
223c
215a
9a46
19f0
9ecb
a232
223c
8d81
223c
a229
a128
a23c
2228
223c
223c
a23c
a119
2239
a203
a23c
a23c
a22f
a1c4
223c
a23c
223c
1cb2
a23c
223c
1d2b
192a
19ac
a23c
223c
9abf
223c
a23c
a23c
21b8
223c
a23c
223a
a1fd
a23c
a1b6
21c0
a23b
223c
a1fa
9f97
21aa
a239
223c
223c
a23c
223c
9a09
a23c
a1ca
2239
223c
a07e
a23c
a23c
9ccb
223c
a1e4
223c
a238
a1e7
2239
a20f
a23c
223c
a222
21a3
a23c
223c
a23c
a23c
9db8
a109
a23c
223c
2079
1b4d
a23c
a23c
2233
a220
2188
223c
a23c
223c
9ae6
223c
9ed1
223c
223c
a23c
223c
9e71
2238
1b3a
223b
9a55
210f
21f0
a23c
223c
a23c
a1d6
223c
21e1
a23c
a23c
2219
a23c
a239
a23c
a23c
a23c
223c
1e00
a23c
223c
a22c
223a
a23c
223c
a23c
223c
a23c
223c
1d18
223c
a23c
a118
9cf6
9c20
223c
a23c
223c
a23c
a23c
223c
a23c
223c
9979
a223
a1c9
9db0
a226
223c
a23c
223c
2056
223c
221d
94da
223c
a23c
a1c4
a23c
223c
a23b
a23c
223c
a23c
187f
a23c
a219
a23c
995f
223a
223c
a23c
223c
223c
223c
2074
a23c
223c
1f67
a23c
2236
a23c
153c
223c
223c
223c
20f7
a23c
a180
21ee
9e87
2130
a23c
222c
a23c
a23c
201c
211c
a23c
9d97
a07f
a0c1
223c
21b8
93b9
a072
a238
223c
a23c
223c
a0ad
a23c
223c
a239
1c3a
a23c
a138
9f5c
223c
223c
a23c
1a3c
a1e7
a239
a23c
1adb
a23c
223c
208a
a23c
a0bf
223c
223c
a23c
2041
a23c
a1a4
223c
223c
223c
2237
223c
a198
2221
1bd3
a23c
a087
2146
223c
223b
a23c
1d19
2233
223c
a21a
9f5c
21ce
a20b
a23c
a23c
a068
165c
a23c
223c
223c
223c
a23c
223b
a23c
a23a
9999
a15a
a23c
a23c
a1c6
223c
223c
a23c
a23c
223c
a23c
a23c
a231
a233
a12d
223c
a23c
a0a9
223c
17cc
a235
2238
a23c
a23c
a23c
223b
a23c
9f6f
223c
a23c
a23c
223c
223c
1415
223c
a23c
a23c
223c
16b3
223c
a23c
9c0a
a0e6
a23c
a102
a1c5
223c
21aa
223c
a23c
a23c
2207
223c
990b
223c
a156
a228
223c
a175
20e2
a23c
223a
223c
223c
a122
a09a
220f
223c
223c
a22e
9e73
223c
223c
a23c
223c
2193
a23c
9c68
223c
a1e7
223c
a23c
a232
a239
9cb4
a23c
223c
103b
a23c
223c
1d37
a1b9
8c33
223c
a23c
223c
1dff
a1d4
223c
223c
2230
223c
223c
a23c
2236
223c
a23c
223c
223c
a23c
9df1
223c
2211
21b0
223c
a1b6
20d2
a23c
223c
223c
223c
223c
a23c
a23c
a23c
a23c
a1d3
a23c
a23c
223c
a23c
9a7b
1e39
223c
a23c
9826
a226
a23c
a23c
a1f4
223c
a23c
a23c
223c
97fd
223c
223c
211f
223c
223c
a23c
a23c
a23c
223c
223c
a23c
a23c
223a
a23c
223c
a23c
1c1d
21e7
223c
223c
9e1a
223c
1553
a232
a23c
a23c
a23c
223c
9c70
9e3d
2044
a23c
21e5
a23c
a23c
95d8
1828
9fa2
a23c
2211
a063
223c
a1f4
223c
21ea
a23c
21a5
9d13
a214
9f11
223c
223c
a21e
a23c
211d
9de8
21d8
1d4d
0a64
223c
a23c
a23c
2223
9ed2
223c
a23c
a23c
223c
223c
2032
1e5a
223c
1660
985f
a232
20c8
9b71
21f5
223c
a1e0
a23c
a23c
a171
a23c
223c
2235
223c
223c
a23c
2234
223c
98a1
a23c
a23c
20d1
1c06
223c
a23c
a23c
a11a
223c
223c
a1ac
a1a8
223c
223c
a22d
a1f5
a23c
a23c
223c
21ce
223c
223c
a1f1
a23c
a020
223c
223c
a23c
2233
a23c
223c
a23c
223c
19e1
223c
21d4
223c
9e53
1bb3
9e53
a1f3
a21d
1f55
a23c
9078
a23c
a23c
a23c
223c
a23c
a23c
223c
223c
a1bf
a23c
223c
a1f6
a23c
926b
a1e7
a23c
a237
223c
223c
a23c
21aa
1b93
a23c
223c
223b
223c
a23c
a23c
223a
21cf
223c
217a
a23c
223c
a23c
a23c
a23b
a23c
a1e8
223c
2233
2202
223c
a23c
a23c
223c
a229
a23c
2193
223c
a23c
a23c
a239
9b78
2239
2231
a23c
223c
a23c
a23c
a23c
223c
a23c
223c
1da3
a23c
9eba
2153
1cce
223c
223c
a23c
a23a
a23c
a238
a23c
223c
2122
a0a2
a1c6
223c
223c
223c
223c
223c
a239
a1c1
a236
a23b
223c
163a
a1b7
a23c
a23c
a23c
a23c
a23c
223c
9e97
220f
a23c
223c
a23c
223c
98e3
a238
223c
a23b
1df7
a237
a23c
223c
223c
a23c
a23c
89ae
2239
a23c
a23c
20ed
223c
a18f
a23b
223c
223b
223c
a237
a23c
223c
223c
2223
223c
223c
a23c
a02b
223c
a23c
2181
a23c
223c
223c
9646
223a
223c
209b
223c
a23c
a182
a23c
218f
223c
222a
222a
a23c
9970
223c
a23c
1a3e
2035
a23c
a18b
91a6
a138
223c
a23c
a198
a23c
223c
223c
a23c
1a55
a23c
a159
1f48
9fe9
a23c
a23c
a23c
223c
a23c
a23c
a23c
a23c
223c
179e
a237
9e95
223c
151e
a23c
a23c
a0c7
223c
1cb7
223c
a23c
20a5
223c
a11f
223c
223c
a23c
a23a
a23b
1be8
a23c
a23c
a145
9531
2207
9db9
204f
9ace
223c
9f5d
9d43
a118
2186
a23c
223c
2168
223c
a23c
a23c
a23c
a23c
21e4
a0ac
9ffd
a02c
223c
a23c
a236
a06a
a211
a13c
223c
a178
223c
a23c
223c
a23c
21ff
a02c
1d9d
a23c
a23c
215b
1c5f
a150
a23c
a23c
9e07
223c
911e
a23c
2238
211b
a23c
a23c
1e71
223c
a23c
2234
a23c
21ac
a23c
a1a3
a23c
a211
a23b
2235
a23c
223c
223c
a1b2
8ddb
a23c
1e30
223c
a237
a23c
a15b
223c
a235
a23c
a23c
9ded
223c
a23c
a22b
9a05
a23c
a23c
a23b
a165
a23c
223c
a23c
223c
1e28
20f1
9f8b
223c
1f78
a223
21fb
2232
a21c
a23c
a238
9cd7
220a
992b
a23c
a23c
223c
223c
2218
a23c
a029
a070
21db
a049
18f3
a23c
a23c
9bb1
a23c
a23c
9cf6
a23c
a23c
223c
222d
2229
223a
a23c
223c
a23c
a23c
221a
223c
223c
223c
a23c
a23c
a152
a23c
223c
21bc
223c
9f1d
1f01
223c
9e74
1b4b
a23c
a23c
a23b
a23c
21b4
a215
a1fc
223c
a23c
223c
223c
a23c
223c
0953
a23c
a23c
a23c
9e56
1ea3
9743
223c
223c
a23c
223c
a23c
a1e9
222b
a23c
a059
1c8c
223c
223c
a209
2189
223c
20a0
223c
223c
a23c
a23c
a1b7
9dda
216e
a063
a23c
223c
1b58
223c
a23c
a23c
9df9
223c
2239
a22f
223c
223c
1b89
223c
a23c
a237
9d22
a23c
a23c
2198
a21f
1c2a
223c
a23c
223c
a23c
a23c
21e4
a019
223b
a23c
20bb
a23c
a23c
2214
223c
223c
20f8
223c
21e9
223a
1d28
223c
1c0c
223a
a23c
1500
223c
a23c
223c
a23c
a23c
a23c
a23c
a23c
a23b
a23c
a23c
20e8
2070
a23c
a21e
9f02
223c
1e03
a23c
a23c
a23c
223c
20ed
2210
a061
8c33
223c
a23c
2237
223c
a23c
a126
223c
a23c
a23c
2235
a23c
9911
9b85
a23c
a23c
a23c
223c
a23b
2228
a23c
a23c
9da2
a23c
a1ff
223c
223c
a119
1b8d
a059
223c
107f
223a
20d5
223c
223c
1e8c
9a20
2059
223c
a23c
a23c
20b7
223c
a23c
a23c
223c
a23c
2235
08da
a23c
223a
a22f
1a09
a239
9f98
a233
21ac
a1db
223c
a23c
1b63
2220
223c
a23c
223c
2237
a23c
a23c
a229
223c
210c
223c
223c
223c
9918
223b
a23c
223b
21f3
a23c
a23c
223b
a23c
a23c
a23c
223c
223c
a22b
a23c
222d
20ad
a23c
16d5
2100
223c
223b
a23c
a23b
a23a
a23c
2162
a23c
223a
a23c
2238
a23c
223c
a160
a23c
223c
a23c
a23c
a23b
223c
a23c
9db7
a23c
223c
2231
a231
a220
1c71
2190
a239
223c
a23c
2158
2192
9ce6
223c
223c
a23c
9ea8
1d22
a23b
a23c
a23c
223c
a080
a23c
a23c
223c
221a
a23c
2227
a23c
223c
a0b7
a23c
a23c
223c
223c
222d
1cf8
223c
a23c
a23c
223c
223c
a23c
2022
a1b5
a23c
97b5
223c
a23c
a239
a23c
223c
a23c
a23c
223c
223c
a23b
a23c
2136
a1aa
a23c
2238
9ba4
223c
a23c
a23c
223c
a23c
a238
2234
223b
a23c
9756
1e65
222a
223c
223c
a23c
223c
223c
1f00
a23c
a23c
a23b
223a
a23c
a23c
21e4
a238
223c
a23c
223c
a23c
223c
a23b
a23c
223c
223c
20d3
223c
223b
9fab
223c
a23c
2055
1c02
16c2
1cf0
223c
a23c
223c
9fdb
a23c
a135
223c
223c
a23c
1043
223c
a23c
a23c
a0b2
21a9
223c
2221
21e2
a23c
a23c
a230
1c45
9f4e
223c
223c
223c
a23c
1815
9d11
a1d0
223c
223c
21f1
a23c
210d
2233
223c
a23c
207c
a23c
a23c
0d44
a1e5
a1ef
a1e8
223c
2155
223c
223a
a210
9b3a
a08a
223c
a23c
a23c
1c5e
193c
a156
223c
9ec2
21e5
221c
1d65
a23c
1f85
a23c
a23c
9fc1
a23c
90da
2236
a23c
a05e
1ee0
a23c
223c
9f56
a223
a225
a21f
a05e
208f
223c
223c
a23c
223c
a23c
1d07
a23c
a23c
a23c
2084
2072
05eb
223c
9d1c
223c
a23c
223c
a202
a23c
223c
a23c
223c
11eb
2224
a21c
1e89
223c
a23c
223c
a23c
a23c
a23c
223b
223c
17a9
a1c8
a23a
a23c
a23c
a22e
9db4
223c
223c
223c
223c
1c62
a1cb
223c
a23c
92d5
a23c
223c
a23c
1f80
a238
a23c
223c
223c
20a5
a01e
a237
223c
a231
223c
a23c
a23c
1f5f
a23c
a23c
223c
a23c
223c
223a
223c
a23c
212b
a23c
a23c
223c
a23c
1f01
a23c
a23c
a23c
9b43
223c
9b87
223c
223c
a208
168a
2234
223c
223c
9b69
20cb
223c
a23c
2237
a23c
223c
a23c
a23c
1e9a
a23c
2226
a23c
220c
9a33
223c
a23c
223c
222d
a23c
a23a
1b80
223c
223c
223c
a23c
223c
222c
a235
a23c
a143
223b
21e3
223c
a23c
223c
223c
9f3e
1b78
1a0d
21fe
223c
a239
2220
223c
a232
223c
219e
223c
a1c3
a23c
223c
223c
a23c
20f3
223c
223c
223c
a23c
a23c
2221
223c
a23c
223c
a23a
a1f8
223c
221b
a23c
136d
223c
222b
208d
2237
a1a9
9478
a23c
223c
a23c
a206
a23a
a23c
a23c
a23c
a0a4
a23c
223c
1ee9
a23a
2210
223c
223c
17d3
223b
a23c
a23c
a23c
21e5
a1fa
223c
a23b
223c
a10a
223c
223c
a1b6
21fc
20e7
a23c
223c
9e9c
223c
223c
9cac
2135
2237
223c
a23c
a23c
208f
99a3
223c
223c
18ed
a23c
1d19
a21a
223c
a185
a23b
223c
8ddb
a23a
a23c
a23c
a23c
16f4
9cc1
a23c
a23c
1bdb
a23c
a23c
14e2
223c
1a8c
a23c
1902
a17e
a23c
189a
223c
223c
012f
223c
a199
1c95
223c
19b2
a23c
a123
a23c
a218
20d8
9c59
a23c
a23c
1ef3
223c
2233
a23c
a23c
221e
216d
223c
2206
a23c
a224
92d5
223c
149a
a23c
223c
223c
223c
223c
223c
a1d8
221d
a23c
9f13
a235
2237
1be0
a23c
a23c
223c
21bf
a23c
223c
223c
a23c
9835
223c
1590
a23c
223c
223c
223c
2204
1d5d
9d43
223c
0c7f
223c
223c
a22c
9874
a23c
a23c
a23c
223b
a23c
2229
223c
223c
a23c
221f
a233
223c
223c
a23c
2237
223c
223c
223b
a21f
21cc
223c
2229
223c
223c
a238
a23c
a23c
a09f
223c
223c
a23c
223c
a23c
a1b0
2225
a23c
223c
935e
a23c
223c
a23c
a23c
a23c
a23b
223c
2239
a23c
a23c
95c9
221c
2177
a23c
a23c
223c
223c
223c
21ac
223c
223c
a23c
1686
9f63
218f
a170
a23c
a23c
1906
223c
a23c
1f7a
223c
a0e6
14cf
2235
215f
223c
9bf3
a23c
212a
a23c
2233
9b0e
223c
a23c
222d
211e
a23c
223c
a09c
a206
223c
a23c
a23c
a23c
a1fa
221e
a23c
a23c
a23c
1d50
a236
17f5
201a
222d
a153
223c
9ebb
1e89
a22b
2202
a23c
20af
223c
a23c
a23c
214f
a23c
223c
9c91
a23c
a23c
223c
223c
223c
2213
80f2
217d
a23c
a0ab
a23c
144e
a23c
a141
223c
a234
223c
2146
223c
a23c
a23c
a23c
99db
a23a
223c
206d
223c
21f9
a23c
2071
a08c
1ea9
21a1
210f
9def
2179
2143
8f65
223c
a127
a23c
a238
217a
a233
a23c
1fd6
223c
a23c
a1de
223c
8fcf
192a
2239
223c
a23c
a004
a23c
a216
9660
1e7a
223c
21f9
223c
223c
20fd
a213
9a8c
223c
223c
a23b
a23c
9eea
a23c
a23a
1ab9
a23c
9dcd
a1ef
222f
a23c
a238
a23c
1673
223c
a23c
223c
1d5a
a23c
a238
2120
8935
a23c
223c
a19c
a1e2
223c
a23c
a23a
1e54
21e1
9f5e
1f08
a23c
a1ca
a23c
a23c
9b16
a23c
218e
2220
a23a
223c
223c
2123
2137
a04f
2220
223c
a23c
a23c
21f7
1975
223c
2234
a1f3
98ab
21c8
1f62
20fc
a23c
223c
219c
a23c
a016
18f3
a23c
a23c
a23c
91e3
223c
a23c
a23c
223c
2237
223c
a1b9
84bc
9f95
223c
a1e2
a22b
223b
a0f9
9a20
223c
9e7b
a189
223c
2047
1e71
223c
214f
9d09
a23c
211b
223c
223c
2195
a23c
223c
a23c
9ee5
223c
9f16
a23c
223c
a22c
2239
a23c
a205
9feb
1fd9
194d
a220
a0d2
a23c
21ed
1cd6
21ed
223c
223c
223c
a23c
223c
221f
8fb1
9ac8
0079
a0bf
a23c
223c
a23c
1a3e
1f89
223c
a23c
a15f
a23c
a23c
a236
1eac
21af
a23c
223c
a23c
a1c7
a1ec
a23c
223c
223c
223b
a23c
a1cb
a23c
9cbf
9f7c
1f51
a236
a23c
223c
a208
1f3f
223c
21b9
a23c
a23c
a23c
223c
a1d1
20b6
1dd4
a23c
a23c
223c
1a07
223c
223c
21ff
a23c
a12a
223c
a220
a23c
223c
a23c
a23c
a23c
a219
a088
1ab7
a23b
a23c
a23c
a222
9a66
a183
21af
223c
a23c
a23c
223c
a23c
a23b
2235
223b
9a46
2103
1824
a23c
a23b
a12f
219e
223c
201a
a23c
223c
223c
223c
223c
21a7
a0d8
223c
a23c
a23c
a237
1988
a23c
223c
a12c
9da8
9e49
223c
a23c
a23c
a23c
223c
a23c
2239
20bd
2220
9bf7
a23c
a230
21a2
223c
2161
223c
1867
8314
a238
a23c
a095
a1ee
223c
223c
223b
223c
223c
a23c
a23c
a23c
9a9b
a23c
1add
223c
a23c
a23c
2234
2153
1b71
a23c
9cb4
20b2
9d65
223c
a23c
a229
9940
223c
15ae
223c
97db
a23c
a23c
223c
223c
a23c
2012
a23c
a23c
223c
2208
9cfb
951e
a23c
223c
a1f5
223c
9c3a
a229
a23c
2128
1b29
223c
a23c
223c
2229
9a60
a23c
222b
a23c
a23c
1b7a
a23c
a23c
223c
223c
a23c
1ce0
223c
223c
223c
223c
223c
2216
a23c
a23c
19d6
a23c
20b5
a23c
1fb0
9ce0
a23c
223c
a23c
223c
223c
223c
a1da
a23c
9d43
a23c
a23c
a23c
a23c
15f6
21a4
1db8
202f
2236
a227
223c
223c
223c
223c
2235
223c
2238
223c
98cf
a23c
223c
a23c
1b27
2210
183d
223c
a23c
223c
a23c
223c
a23c
223b
2207
a23c
223c
a23c
21a6
223c
a23b
2213
21d9
223c
223c
14b0
222f
21e1
9c15
98fa
223c
183d
a23c
a23c
9312
a23c
202c
a1b0
a23c
223c
a23c
2239
223c
223c
1fcf
223c
223c
a23c
1d62
a23c
a239
a23b
a23c
a23c
223c
a23c
a23c
2105
9c0e
2193
a165
a23c
223c
1e0d
223c
223c
a23c
a23c
a235
223c
2235
a0ac
a1e5
a23c
223c
2068
223b
9a55
a21b
1096
9ce5
a23c
a1db
9f02
223c
1e7a
223c
a00b
a23c
2237
9c96
1d18
a23c
a23c
a23c
a23c
12b7
223c
2239
9e7d
223c
9d5a
2232
a23c
2219
a23c
a23c
223c
a23c
21e9
a151
223c
1e2c
223a
a124
a23c
a23c
223c
2195
a183
98d2
a23c
a23c
1ecc
223c
2238
223c
a23c
a23c
9b43
a23c
a23c
a23c
223c
223c
2208
a23c
a23c
a18b
a23c
223c
a23c
a1de
a23c
140a
1e19
a22c
1126
20e5
223c
1855
223c
a15b
1f90
a23c
223c
a23c
1ee5
223c
2227
223c
223c
223c
2226
215d
a23c
223c
223c
223c
1579
223c
223c
223c
223c
a23c
223c
223c
a23c
a23c
223c
2226
9fe3
1c4b
223c
223c
1ef9
a1ef
98bf
20e6
2239
a1d4
a23c
a23c
223c
2237
a23c
223c
223c
a23c
223a
a23b
a21f
a23c
223c
223c
223c
a23c
2188
9d75
20db
223c
8add
223b
155b
2087
9fa2
a23c
222c
223c
a150
a23c
9a33
21b3
a23c
951a
a13d
2236
a21e
a23c
223c
21f3
a23c
a23c
a23c
223c
a23c
a23c
2027
a0c1
223c
a23c
1c77
223c
a23c
a23c
9eb8
a23c
9b29
223c
214e
a190
162f
223c
21ed
a23c
223c
9dfd
1ec3
a200
a23c
9468
a23c
223c
223c
a23c
1ff0
223b
a23b
223c
a1a8
2143
221e
2234
223c
a23c
9d50
a23c
2224
223c
a1a6
a1ea
a23c
223c
a177
a23c
a193
1d33
223c
a23c
223c
2062
1981
223c
222d
2236
8824
200a
20aa
a23c
21d2
a23c
223c
a232
a1bd
2226
223c
a23c
a23c
223c
2221
9dfc
a23c
21ab
a23c
98b0
223c
20c8
223c
21f9
223c
8d26
223c
a18b
a23c
223c
223c
18d6
a23c
217b
223c
a23c
223c
223c
201a
a23c
223c
9b29
223c
a23c
2220
a20d
a21f
a215
9f0a
2234
a23c
222c
2233
a23c
223c
2231
223c
a23c
21bb
a23c
223c
a23c
a23c
223c
220d
223c
2018
81a8
a23c
222b
223c
2239
223c
9c90
a23c
223c
a236
a23c
a229
a23c
1c21
a228
223c
223c
a23c
a23c
a23c
a23c
223c
a23c
a1d9
2039
a238
2236
927b
223c
2214
9c26
197f
9e60
a23c
223c
2219
2148
a235
223c
a23c
a23c
a23c
223c
9db0
223c
a23c
a23c
a23c
223c
223c
96ac
223c
a11b
2199
21dc
223c
223c
223c
223c
a23c
2185
213a
a23c
a23c
a23c
1c5b
2232
a23a
a23c
a23c
a22d
1953
223c
a23c
a23c
a119
223c
223c
a23c
a23c
a23c
a23c
1cec
223c
223c
a23c
a158
223b
a23c
a237
a0de
223c
a23c
223c
1d91
20db
2222
223c
a199
a221
223c
223c
223c
223c
9c0b
223c
a23c
1e72
223c
a23c
207a
151a
9ea3
223c
a23c
223c
a23c
1ec5
223c
223c
9c85
a23c
223c
223c
223c
a23c
a156
2230
223c
a23c
223c
9cf5
a23c
a239
a23c
223c
20b7
223c
a21c
a23c
a23c
223c
1c5c
2237
a23c
a23c
223c
223c
223c
9990
a23c
a23b
223c
a23c
9a8c
9edf
1fe4
a1d9
a23c
a23c
2238
a182
a23c
21f6
9da4
a23c
a23c
a055
a23c
2201
8756
9e85
223c
20f5
a186
a236
a23c
a23c
223c
a23c
1a86
9c94
a1f0
a23c
9db0
223c
a23c
223c
a23c
223c
a23c
a0a1
952a
1ebc
223c
223c
2227
223c
a23c
a23c
223c
223c
a23c
989c
976d
223c
223b
223c
9a07
1f18
0d9f
a23c
223c
2226
2239
21e1
a23c
a23c
a23c
a23c
163e
9428
223c
a23c
a238
222a
20f5
223a
223c
a23c
a23c
a22d
223c
a23c
223c
2234
223c
a210
223c
223c
2164
223c
222f
a23c
a23c
a23c
9d45
21ec
a17a
222e
a23c
a23c
223c
2221
a23c
a23c
a0c3
223c
223c
223c
223c
9cec
a23c
a201
a23c
a1fc
a23c
1bd3
a23c
a1b8
9e98
223c
223c
1d55
a23c
a172
2031
223c
9aca
2234
223c
223c
21df
2239
2235
a23c
a229
a23c
116a
9be0
18e7
222d
223c
a23c
a23c
a23c
223c
223c
223c
9c5b
a23c
a23c
223c
1411
a23c
223c
223c
a23c
a239
223c
200f
223c
223c
a23c
223c
223c
2227
2210
a23c
a23c
223c
223c
223c
a23c
a23c
a23c
a23c
a23c
a23c
a23c
1c2b
2194
223c
2239
a23c
a028
a23c
223c
a23c
9f8f
a23c
223c
a23c
a23b
223c
a21b
1c66
219a
223c
a223
21be
9f76
17cf
1c5d
2229
223c
2235
a23c
a21a
a10f
a23c
223c
a23c
223c
223c
223b
2212
222d
1ca9
223c
2233
a23c
a23c
223c
1e09
223c
a23c
2092
140e
a23c
21ff
17d7
223c
a23c
a23c
a23c
a23c
2023
223c
223c
223c
a23c
a23c
a23c
223b
223c
13d7
a23c
a23c
a23c
a23c
a1ef
a168
a231
223c
2219
9968
a23c
223c
a23c
223c
223b
a23c
223c
223c
2235
a23c
223a
a23c
a23c
a23c
223c
a23c
a031
223c
a23c
2181
2060
a23c
a23c
1894
223c
223c
a23c
20df
a23c
223c
a23c
a23a
223b
a23c
223c
92a8
a23c
223c
223c
223c
a23c
223c
21b9
223c
a23c
0079
223c
1793
9f54
2162
a239
2122
223c
a23c
a23c
20bf
a23c
a23c
223c
a23c
a23c
95db
a23c
223c
223c
a23a
a23c
a0d1
2236
a23b
a23c
a23c
a112
223c
a23c
223c
1fdd
9d90
a23c
a23c
a23c
a23c
223c
a134
a23c
a23c
a0e0
20ad
a23c
223c
a1ae
a16a
a1c9
a23c
a23c
223c
223c
223c
223c
a236
223c
a23c
a237
a23c
223c
a051
a23c
21bf
a23c
1d97
a23c
a23c
2213
a23c
2234
223c
a1bd
a203
1928
1dd6
9e3c
a23c
a23c
a23c
21a1
a23c
2084
a23c
a23c
a23c
9430
a23b
a23c
223c
a23c
a23c
223c
223c
a23c
a164
a23c
a23c
1e30
223c
223c
a23c
223c
a23c
a23c
92dd
a23c
a23c
223c
223c
a23c
21e1
1691
223c
223c
223c
223c
a224
a23c
99cc
1fdf
a237
a23c
a23c
a23c
223c
a200
223c
a23c
1ba0
1ced
a23c
a23c
9c78
a23c
a23c
2234
223c
2212
8fde
9959
a23c
a23c
99ac
223c
a23c
223c
223c
9c4d
2158
1d45
223c
a23c
a1be
9f60
223c
223a
a23c
1b5c
223c
1cc3
a23c
a23c
a237
223c
a23c
a208
a23c
a23c
a23c
2141
99c9
2232
223c
a23c
223c
223c
a23c
a23c
10c3
223c
a23c
a23c
a23c
223b
9eb0
a23c
20cf
a238
223c
a23c
a23c
a22e
a23c
a23c
a23c
a23c
223c
223c
1f59
a23c
223c
223c
a23c
a23c
a23c
1ce0
a23c
223c
223c
a1b9
a118
a23c
a23c
a222
223c
a230
a216
1b23
a122
1f1b
a23c
223c
18ad
2067
223c
223c
223b
2208
a23c
a028
223b
a23a
a23c
223c
9f59
223b
a23a
2138
2192
2215
223c
223c
2236
a23c
a23c
a23c
223c
1894
a16c
1ed5
222e
9fab
a23c
a23c
a23c
a23c
223c
9b4b
223c
a23c
a20c
a23a
a23c
223c
9144
214d
223c
223c
223c
a23c
2154
1f5c
a22d
a23c
a097
a23c
a23c
223c
a23c
a23c
206b
a23c
17cf
223c
223c
94cf
2237
a239
a1aa
a23c
223c
223a
223c
a23c
a23c
a23c
a23c
a1ad
223c
9b41
1ffc
223c
a23c
223c
a23c
0ece
223c
a23c
a23c
219a
223c
223c
2217
2234
223c
223c
9d4d
a23c
2216
1966
a238
a23c
223c
223c
a23c
a23c
a22b
9b6d
a23c
a23b
223c
1c46
a23c
1c43
a23c
21ac
223c
a23c
a23c
223c
a23c
9e7a
223c
223c
9baf
a23c
223c
a23c
a23c
a0b3
9ca4
2234
a23c
2238
a23c
1975
a09e
a23c
223c
a015
223c
21d3
2216
a23c
211d
223c
a233
223c
9478
202e
a23c
a23c
223c
223c
a23c
0e91
1601
1971
9a64
a23c
223c
223c
223c
223c
a111
a23c
a031
a23c
223c
1ea0
2207
a23c
a23a
19d2
223c
a035
1af6
a23c
a23c
223c
2220
223c
223c
223c
a23c
a239
a23c
a23c
223b
a23c
2105
223c
9aca
1b7c
a23c
a23c
a23c
a23c
1cf7
223c
223c
a23c
a178
223c
1ff4
223c
2208
2076
223c
222b
a23c
a107
9e08
21fd
223c
1e08
1ad0
1b3a
21ff
a23b
a23c
a23b
a23c
a23c
1e6a
a23c
223c
11cc
223c
99b0
223c
223c
a23c
a23c
9e73
a23c
223c
8f38
21f9
223c
9f75
2133
223b
a1f5
223c
a23c
1f55
223c
9fb1
21c5
205d
93c0
a23a
a225
a1cb
a23c
a233
a233
a23c
9cf1
1ad7
9c03
9bd1
223c
223c
9ae3
a23c
223c
a22f
a23c
a23c
a235
2047
223c
2234
223c
14e9
223c
223c
2070
a21a
a238
223c
a22e
99ae
a23c
a23c
a23c
a23c
223a
2020
9f43
a23c
a23c
21ed
223c
2234
9907
223b
9cb5
a220
a14e
a23c
223c
a23c
2238
1aff
218b
a210
a23c
a23c
a23c
223c
1f57
a206
a23c
2238
223c
223c
1f77
223c
a23c
223c
223c
223c
0793
a23c
a23c
a23b
a23c
a238
223c
a23c
1e39
a0fd
1dd3
2194
223c
1a55
223c
a23c
a22b
a23c
a17c
223c
223c
223c
223c
208a
a208
a23c
a23c
a078
223c
223c
998e
1fa9
a23b
a23c
a23c
a23c
a23c
1d8b
a23c
223c
2040
223c
a23c
a233
223c
a23c
a168
95b6
a21a
2007
1dbe
8571
223c
a22d
223c
2137
a23b
223c
1d8e
212a
223c
223c
a23a
1cd9
a238
223c
a23c
a23c
a1fc
223c
223c
223c
a23c
a0bf
223c
a23c
a23c
a23c
207b
21da
223c
223c
223c
9faa
2112
a23c
223c
2234
223c
a200
223c
a23b
223c
a23c
9ecf
2110
223c
a206
a230
9d5d
a23c
a23c
21e3
20de
2232
21af
2106
a23c
9fbd
1cc9
169d
1f46
a23b
1cb5
a228
a23c
223c
223c
9de4
9c00
a227
223c
214e
217c
a23c
9f7f
1dc5
a1fa
a20b
223c
2232
a23c
a23c
1933
2145
a23c
223c
1d33
a23c
2163
223c
223c
2081
223c
9784
223c
21c0
a23c
a23c
9c34
9f31
a23c
223c
2233
a23c
a239
a23c
2029
194c
a23c
a23c
223c
a040
a23c
a23c
1a40
9ee5
223b
223c
9ca6
2237
1c6c
2047
2214
223c
a23c
223c
a23c
223c
a23c
223c
223c
223c
223c
223c
979a
223c
1aee
a21d
a23c
223c
a21d
a23c
21bd
a23c
a23a
a23c
223c
a23c
a23c
9cc8
223c
223a
a23a
223c
9cd0
14bf
1d25
223c
1cde
21d8
223c
15d4
a23c
223c
1d5f
223c
223c
223c
222b
a238
a23c
9c9d
223c
09ae
223c
2231
223c
a150
a23c
1a5a
2239
953c
223c
223c
2234
223c
a23c
a23c
a23c
0ea0
a043
a232
223c
a1ee
a23c
8a82
2238
223c
2239
943b
1e32
223c
a23b
a23c
21db
223c
223c
193e
223a
223c
220c
a23c
a23c
223c
223c
a157
a131
a23c
223c
1ff6
a23b
223c
a23c
2217
a23c
9b8b
1826
a23c
223c
223c
223c
2036
223c
21c9
223c
223c
a23c
a1fb
a167
223c
9465
a23c
223c
a21a
a23c
9b03
1f6b
a23c
223c
a23c
a05a
223c
a23c
a23c
210c
a23c
a23c
223c
223c
215e
a23c
a21b
9419
1b65
a18c
a23c
223c
a23b
223c
223c
a09b
9dfb
a23c
223c
223c
a039
a238
a23c
2239
1835
1e2f
a23c
223c
a066
18ed
a23c
223c
a22c
a23c
a0ee
a23c
a23b
a20d
a233
a23c
a23c
a23c
223c
20c7
223c
a23c
223c
a23b
223c
a23c
a03c
a23c
223c
223c
223c
223c
a22d
223c
a23c
223c
a23c
223c
a23c
223c
a23c
a23c
a23c
a1ab
2238
a23c
a23c
223c
1a29
a23c
223b
a099
223c
223c
1c49
223c
223c
a23c
1883
223c
223c
223c
a23c
a23c
a234
1dae
a23b
223c
a23c
a23c
2163
a23c
a23c
a23c
2057
a23c
223c
223c
223b
a23c
223c
a23c
223c
a22b
223c
a23b
a23c
a23c
a23c
222b
223c
a23c
223a
a23c
a235
a23c
223c
223c
a10e
a23c
223b
a23c
223c
9bec
2233
223b
21b9
a23c
a1f6
20e6
209c
a23c
a23c
a23c
223c
1bde
1efb
21bb
9e4e
a228
2010
223c
219c
223c
9efa
223c
2236
a21f
20f3
223c
a23c
223c
a238
a23c
a22c
9eb3
223c
1830
a23c
223c
a23c
93a9
223c
223c
a23c
a23c
a13c
223c
a23c
a23c
2238
223c
a23c
947f
223c
21e3
223c
1e43
a23c
2239
a21b
a225
a23c
223c
a21b
a23c
a23c
223c
a23c
a23c
223c
223c
a0f6
9b4b
223c
a23a
a0c8
223c
223c
223a
a23c
a217
223c
2236
223c
201d
a23c
21ff
a23c
184e
a23b
1774
a23c
94b8
a23c
223c
a23c
a228
a23c
2239
223c
201c
1822
a23c
223c
223c
9655
a23c
9e91
223c
21f3
223c
a23c
a23c
21f2
a23c
222b
a23c
a23c
223c
223c
223c
a23b
a233
2042
a219
a23c
a0e1
a23c
0e73
223c
a23c
a23c
a233
a23c
a1b0
a23c
223c
a1b4
223c
a23c
a1f6
201d
223c
a118
a23c
970e
a23c
1c77
a23c
a23c
a23c
a23c
223c
223c
a23c
20db
223c
a23c
223c
a169
223c
1539
21bd
a07e
223c
2147
2181
223c
a023
20c0
21f7
a23c
a1fb
a23c
1ead
a23c
223c
a072
223c
9d98
1b8f
9f36
a23c
a23c
223c
223c
a23c
a23c
9a4f
223c
a23c
a23c
223c
9830
a23c
a23c
a23c
223c
a23c
223c
2238
223c
a235
a23c
a23c
223c
223c
2075
215c
223c
223c
2133
a23c
a23c
a0ba
a23c
210c
a23c
a23c
a238
20c6
223c
2233
a23c
223c
a1e5
a23c
223c
223c
223c
2205
a1c7
223c
223c
1dff
a23c
a205
223c
223c
a23c
223c
223c
223c
a1d3
a235
223c
9bba
a23c
a201
223c
223c
223c
a233
1f96
a23c
a23c
a23c
a23c
a23c
12dd
1fa1
223c
a23c
2211
a23c
21af
a23c
a062
20c8
a149
223c
a229
a23c
2238
223c
a23c
18f6
223c
a23c
9e9e
223c
a23c
a23c
1828
a203
a23c
223c
a23c
223c
2232
223c
a23c
223c
21e4
223c
223c
223c
a23c
a055
a23c
a23c
9a8f
a237
11c5
a23c
9ee7
a23c
a23c
a23c
a23c
223c
a23c
1da7
223c
21cf
9f54
a23c
a06d
223c
223c
a23c
223c
a23c
223c
223c
a23c
9c4f
a23c
223c
223c
a23c
223c
a23c
221b
223c
223c
223c
223c
9e5e
223c
223c
a23c
a23c
a23c
a23c
a12d
223c
a230
a235
a23c
223c
180c
a23c
1f8b
a23c
a23c
a23c
a23c
21a6
a1b4
a23c
1f8f
223c
21de
223c
2232
a16e
a23c
223c
a224
a151
223c
a23c
a23c
223c
223c
a23c
a232
a1cf
951a
a23c
a23c
9d0f
223c
20c6
a1f6
9a20
1729
a213
223c
209e
9da6
2234
2086
2048
a23c
11ae
1830
223c
a039
223c
a207
223b
223c
a234
223c
a23c
9892
a23c
223c
1273
9070
a23c
a211
223c
223c
223c
a015
223c
19ed
a222
223c
215c
223c
1b50
223b
a23c
9f11
a229
a23c
a227
a23c
a0b5
1f29
a23b
9fe8
a177
223c
2239
223c
2238
2086
a22b
a19d
a23c
a1b3
223c
a23c
223c
a23c
223c
1ff5
2236
a154
223c
223a
a1cf
a1e2
223c
2017
223c
a232
223c
a1f4
223c
223c
223c
a23c
223c
1c8d
a23c
223c
219f
a23c
a23c
a23c
223c
a09c
a23c
a23c
223c
2225
a23c
a23c
a23c
223c
985f
223c
223c
223c
9fd5
a23c
21f6
223c
a23c
223c
97e6
941d
2238
1f67
9d42
223c
a23c
223c
a23c
a231
a23c
a23c
21e2
223c
223c
211a
21f2
20ea
a23c
a23c
223c
1762
9fc0
21c1
a235
a23c
a230
a23c
a23c
a23a
a23c
a20e
223c
a23c
20eb
a23c
a23c
a23c
223c
223c
98bf
223c
8a09
9c4e
a23c
223c
1f39
223c
223c
223c
2229
223c
201b
a22b
a238
a23c
223c
a23c
1cb6
223c
2180
223c
a1cf
a237
223c
223c
a23c
a23c
a23c
223c
223c
223c
1d8f
a0f9
223b
223c
223c
17f1
a23c
223c
2238
a23c
a23c
223c
a23c
a23c
a19b
2234
a23c
a23c
a183
a23c
223c
223c
9fb6
a13b
2238
a23c
a23c
a219
a23c
20fd
a1ca
a208
1f1b
a23c
223c
a23c
1c63
20a7
a0b6
20cc
2234
93ee
a23c
2022
a23c
a23c
a23c
a23c
a23c
2234
a198
223c
223c
223c
a23c
a23c
a23c
223c
0bee
223c
9cfe
223c
2154
223c
223c
a18c
a23c
a237
a23c
9cc5
a236
1a86
a23c
223c
223c
a23c
a147
223c
1d5c
223c
223c
2000
12e5
a23c
2237
223c
a228
a23c
1b76
a202
223c
1c36
223c
a096
a23c
223a
223c
2190
223b
223c
196a
223c
217f
a23c
a23c
221e
a23c
a23c
9bca
a23c
223c
223c
223c
a23c
a23c
9f7f
9c25
a23c
2239
223c
a23c
a217
a23c
1cba
1d29
a23c
223c
9e53
a22f
223c
223c
a067
a23c
a23c
a233
a23c
223c
a0ca
a23c
a23c
2203
223c
a23c
a23c
a21f
223c
a23c
221a
a23c
223c
a058
98fc
a23c
a23c
a1e5
a234
2022
a23c
a1a1
223c
2213
8ffd
a16f
21d1
223c
a23c
a23c
a208
a171
a23c
1caf
a181
a23c
a23b
223c
1f34
223c
9c70
a050
223c
a23c
2070
9c72
223c
223c
223c
a23c
2159
223c
a1ca
9cf7
a23c
223c
204b
a1fe
a23c
20d8
a23c
a23c
a23c
a22d
20f7
1dd1
223c
1a5a
a23c
a23c
a23c
a062
223c
9ad4
223c
a23c
223c
a23c
a23c
1c26
a23c
a23c
223c
a23c
a23c
2171
a23c
a23c
a23c
a0e7
a23c
223c
a208
223c
9c1b
18eb
a23c
a23c
a1ad
223c
223c
20a8
a23c
223c
223c
21c8
223c
a23c
a23c
a23c
1190
a239
99f4
a23c
2217
223c
a081
a20b
223c
a23c
a23c
223c
a227
9ef7
223b
a23b
223c
21cb
220f
223c
a23c
204f
a23c
223c
9658
223c
a194
1d03
223c
a23c
a23c
a23c
2234
223b
a23c
a18e
1c68
223c
1de7
a239
a23c
223c
a23c
a229
a23c
223c
223c
a23c
223c
a21d
223c
223b
223c
223c
223c
219b
223c
223c
21a4
a23c
a22d
9e3e
a23c
a23c
a23c
a23c
a23c
223b
223c
a23a
a23c
a175
223c
1e3f
a23c
a23c
a23c
1fb2
a23c
a1b4
a1f0
9db0
2077
a23c
223c
223c
a23c
2200
223c
1d86
223c
1d6e
a15f
a23b
a23c
a23c
223c
a23c
21a5
223c
223c
223c
213b
1815
214c
98ad
a23a
219f
1393
223c
223c
223c
a05b
a23c
223c
a23c
221e
1f69
1cdb
223c
a23c
223c
a23c
a23b
223c
a23c
8f74
9c26
a23c
a23c
223c
a137
223b
21de
1d76
a23c
a23c
a23c
223c
21e0
a190
a10d
a23c
223c
a23c
a23c
223c
a152
223c
9fb1
9a5e
223c
a23c
a23c
223b
1f38
20cf
a23a
15c9
9ad5
a23c
223c
223c
a23c
194c
210f
96a4
223c
9ba0
9dc5
9eaf
223c
20d5
223c
2182
223c
a23c
9a73
a23c
a23c
92fb
8a82
21b4
223c
20e7
a23c
2210
205c
a23c
a23c
222f
a23c
223c
a23c
a23c
a23c
a23c
9a69
a23c
9651
223c
223c
213f
9d7e
a23c
2235
a23c
a23c
a23c
a167
a23c
a23c
a23c
9b63
223c
a23a
223c
a23c
223b
a071
a23c
223c
a23c
9f62
222d
a140
223c
a23c
a226
223c
a238
a23c
a215
10e9
a23c
223c
a236
a23c
2195
223c
a23c
223c
a22f
223c
8a64
223c
2219
a129
a1f9
a23c
223a
a23c
223c
1d4f
223c
a219
a0f2
222f
a23c
a23c
a23c
a23c
a23c
a197
a235
223c
2168
a21c
2231
a23c
9f2a
208a
223c
a23c
a23c
208d
9ab3
9dec
a23c
a23c
a054
223c
1c4a
9e7a
a23c
a1fc
a213
223c
a194
223c
a23c
223c
a227
2172
223c
a23c
223c
223c
a23b
9df9
a23c
223c
223c
a23c
21a0
a23c
a07f
a23c
a23c
a23c
a23c
21f7
a23c
9a22
a23c
223b
a23c
2219
a23c
9d55
223c
a23c
a08c
9df3
222c
a23c
202a
a23c
a23c
a23b
207f
9d9c
a23c
964d
a23c
223c
223a
a1c5
a23c
a197
a226
223c
a23c
223c
a23c
a23c
223c
a23a
a23c
a23c
223c
9ebb
a23c
a21d
223c
223c
223c
223c
a20d
2238
223c
a23c
223c
21a7
a212
a23c
223c
a23c
a23c
a23c
9fe8
a23c
a23c
a23c
a00b
223c
223c
223c
223c
a23c
a23b
221b
223c
223c
a0af
2093
a23c
223c
221b
9f06
223c
223c
20ec
223c
18e9
1c83
223c
223c
92b7
223c
a133
9c08
a23c
1c77
2236
2108
1de4
a23c
223c
a23c
187d
9a3a
a23c
a1fe
a23c
223c
223c
a23c
223c
a23c
217b
a23c
1e31
a1ab
223c
223c
a23c
223c
223c
a010
9f5c
1b6d
223c
a23c
a1e6
a23c
2092
a23c
a23c
a23c
a23c
222d
18f3
a237
a23c
223c
a23c
a0c3
204f
a23c
20b1
1d99
2239
a1b8
a23c
223c
223a
223c
201e
a23c
21f1
a23c
9828
223c
a23c
a098
a219
a23b
1ea5
2221
a23c
223c
9f6d
a23c
a23c
216c
2227
223c
223c
21aa
223c
a23c
9dcf
a21d
a23c
a23c
a23c
9981
0f1a
9059
a23b
223c
a23c
a23c
a232
a23c
222b
21eb
a23c
9de5
97b5
223c
223c
974b
223c
a214
1982
1e32
9ff6
21fd
223c
a23c
223c
2159
a1ee
9878
198e
a23c
a1b1
a23c
20e6
a23c
a233
1e00
2169
a23b
223c
a104
2028
a23c
223c
a23c
2236
223c
21bb
a12e
223c
223b
a23c
a23c
a23c
a23c
223a
a23c
223c
a23c
a158
a20e
a23c
223c
a23c
a23c
a23c
223c
223c
17d3
223c
223c
a23c
a212
a23c
223c
a23c
20da
223c
a23c
223b
0d35
12a0
9e34
a23b
223c
223c
a170
a23c
9cb0
a23c
a23c
2217
a23c
a23c
21a6
223c
21d6
2238
a23c
9fea
223c
a23c
a23c
a22d
217a
223c
a23c
a23c
223c
223c
223c
a23c
2204
139a
a096
9ec7
1e02
223c
1548
21d0
a23c
223c
a20e
a23c
223c
223c
a23c
20ce
223c
223c
223c
1bc0
223c
a23c
a215
a23c
223c
2158
a239
a23c
223c
223c
a227
223c
a23c
a23c
a227
223c
1deb
1e6b
a23c
223c
9c53
223a
223c
223c
1f74
a23c
223b
1fd4
a1de
a0ef
223c
a23c
1d51
223c
a23c
9b80
2039
2221
a23c
a23c
a218
9c85
2021
a208
223c
20c9
223c
a23c
223c
223c
20c5
a23c
9ef7
223c
9970
2121
a23c
1a9e
1fe4
223c
21ec
a23c
a23b
223c
a23c
1a09
a1dc
223c
88bc
223c
a23c
223c
223c
a23c
223c
223c
223c
a214
a19f
223a
1769
223c
a23c
223c
223c
223c
a23c
223c
2199
a21f
223c
92ec
a23c
a21f
223c
a1ec
223c
a225
159f
223c
a23c
a23c
223c
223c
a23c
223c
a23c
2120
20dc
222a
223c
21ce
a23b
223c
1fa4
a232
2222
a23c
a23c
223c
1c8c
a23c
a23c
1ddc
9c56
2199
a23c
a23c
223c
223c
a23c
223c
223c
a23c
9c6e
223c
a23b
223c
a23c
a23c
a23c
a23c
223c
223c
2224
a23c
a23c
223c
17a9
a22a
223b
223c
223c
1db8
223c
a23c
2056
a23c
a23c
a23c
a23c
223c
223c
223c
a23c
a23c
223c
223c
a23c
9b98
a23c
223c
a23c
a23a
223c
a23c
1d44
a23b
a23c
223c
a23c
223c
223c
223b
222b
a23c
223c
a07b
2098
223c
1a03
223c
223c
a10e
a23c
223c
9973
20b9
223b
a23c
a23c
1990
223c
9627
223c
9844
220d
a23c
223c
223c
1e57
223c
223c
223c
a222
223c
1579
212c
223c
2100
a23c
a23c
a23b
223c
a23c
a23c
223c
a23a
9ad9
20bc
a236
a23c
a23c
9d97
223c
9d63
223c
a23c
223c
a23c
a23c
a1d9
9e45
99f6
8dbd
a23c
909d
a23c
a195
223a
a1b8
223c
223c
9a9e
a21f
223a
223c
21c0
a05b
a23c
152d
a23c
2177
a23c
a23b
2236
223c
06dd
2237
a23c
a23c
223c
1e51
a118
a1c7
a23c
a23c
223c
a23c
a23c
1c5f
1c1c
223c
a23c
223c
223c
223c
96e1
223c
223c
a14f
a1ad
a22d
a21c
a23c
223a
203a
223c
223c
a23c
223c
9e7b
221f
a23c
a23c
a23c
a23c
223c
a23c
223c
223c
2234
a1b4
223c
2219
a23c
a227
223c
a23c
223c
a23c
2230
2203
223c
a14b
a23c
a1b3
223c
a23c
a143
2239
223a
a23c
a23c
a23c
9fcd
223c
223c
9abf
a23b
9d1a
a23c
a23c
a155
a23c
223a
223c
a1b4
2112
a23c
223c
a23c
223c
9e1c
223c
a23c
a23c
a23c
a23c
a170
223c
2235
a23c
223c
a23c
a23c
223c
a23c
223c
223c
220d
a23c
a23c
223c
a22c
a23c
a198
223c
223c
223c
a23c
1e60
a23c
223c
223c
223c
a23c
212a
99e9
223c
223c
a23c
a23c
a23c
a204
a00f
2132
a23c
a03c
223c
223c
a23c
a23c
1e0d
20c8
2086
a23c
223c
223c
a23c
223c
223c
a1eb
a23c
a23c
1d36
a23c
223c
223c
a23c
a23c
9920
9cde
223c
1ab0
223c
a23c
a23c
a23c
223c
223c
a23c
999d
223c
223c
a23c
223c
a23c
a23c
223c
2235
1e8d
223c
a0c0
a23c
a23c
223c
221f
223c
a23b
9c85
a23c
97c8
223b
a23c
223c
2237
a23c
9dae
223c
a23c
a23c
223c
a23c
a23c
2235
223c
18cd
a23c
223c
2171
a23c
223c
a238
223c
223c
a1f0
a23c
223c
208c
a23c
9c55
21b5
223c
a23c
a23c
9f01
2234
223c
223c
223c
223c
9dbe
a23c
a23c
a23c
222b
a23c
a23c
8c8e
a23c
220d
1d6c
2205
a23c
a12c
a23c
a23c
a23c
223c
a1e2
20cf
211c
a23c
a23c
a1f4
a207
a23c
223c
a23c
a23c
a23b
a0b3
223c
a23c
a237
a23b
2234
207c
a23c
223c
223c
222c
21e4
a23c
a23c
a23c
223c
a213
1797
a23c
a23c
a235
9a95
223c
223c
223c
a23c
a23c
8fc0
a23c
a23c
1cff
223c
223c
223c
a23c
a23c
223c
a23c
9e0c
223c
2238
a23c
a220
223c
9496
16dd
223c
a23c
223a
2234
9cfc
223c
a22f
a1bf
a23c
223c
21bf
223c
2230
223c
a23c
223c
a234
a23b
1a7e
9fb6
a23c
a23c
a09c
1024
a228
a23c
2205
a23c
223c
223c
a21b
a23c
1cd0
223c
223c
19b0
223c
a23c
9de0
a23c
a232
2225
a23c
223c
19a6
1f89
223c
2233
21de
21e4
1dc3
9f17
21be
a23c
223c
a189
223c
223c
183d
a23c
2226
223c
223c
1dee
a23c
a239
a0f9
223b
223c
223c
223c
a23c
223c
a08a
a23c
2230
98b0
9d4d
a23c
a23c
21b8
a23b
a23c
223c
222e
a1af
a23c
223c
223c
21e5
223c
223a
a23c
9ee5
222e
a23c
223c
a23c
2136
2226
a23c
223c
a23c
223c
223c
223c
a23b
a23c
2226
2020
a23c
a23c
2234
a23c
a23c
223c
2226
a23c
9fe8
223c
223c
a23c
223c
1365
223c
223c
1cbf
222b
223c
a1ea
2216
9d39
223c
2228
223c
0627
9024
223c
a23c
2206
1cc5
a22e
a23c
a23c
a0ef
a23c
a23c
a23c
a23c
2237
a238
a1f9
223c
223c
a23c
a23c
a20e
a23c
a23c
a1fd
a23c
a23c
223c
223c
223c
a23c
9a31
223b
223c
223a
223c
a23c
223c
a23c
223c
a23c
a23c
a23c
223c
97a9
a1bb
9fa0
a23b
a23c
a23c
9bdb
a174
a23a
a23c
a23c
9597
a23c
a23c
223c
15fe
223c
a1ea
9b49
a23c
a23c
a23c
0f1a
a11f
223c
a23c
a23c
220b
223c
223c
223c
a22c
223c
223b
223c
1e37
a215
9c94
a235
223c
a21b
2029
223c
a23c
a23c
a23b
a23c
92ec
223c
a23b
223c
a23c
a23c
223c
a23c
223c
a23c
a23c
a048
223c
223c
a1f5
223c
a228
a23c
223c
90e9
2168
a23c
9e19
a23c
223c
a22c
223c
1e47
223c
2229
2227
a21d
1d2c
223c
2028
9d0e
1c5a
2211
a23c
a23c
a22b
a1fb
a23c
a23c
2226
18be
2238
223c
a237
a23c
21a8
a23c
9642
218f
223c
223c
223b
a23c
a222
a23a
9c4d
a23c
a23c
2236
2229
a100
a23c
1730
2236
223c
a23c
a23c
a23c
a23c
223c
943f
2238
9fcf
a23c
a054
223c
223c
9ed4
2143
223c
a23c
220b
223c
a23c
223c
2216
1474
206c
a23b
a23c
1f0c
2098
2059
a23c
a0ee
a23c
223c
223c
a23c
223c
2239
223c
223c
a23b
223c
223c
2239
a19f
a23c
a23b
21c4
1aea
223c
a23c
a19c
223c
223c
223b
a23c
9f51
a232
223c
a137
223c
979e
a1d6
223c
21fa
223c
a23c
a23c
223c
a222
a00d
1e1f
9fbd
a23c
1d6b
223c
223c
223c
a027
2079
8d62
1feb
a23c
a23c
a1e0
223c
223c
a23c
223c
a05f
a23c
a23c
223c
223c
223c
223c
a233
a23c
a23c
9ffc
223c
223c
a23c
a23b
223c
21af
223c
223c
a23c
a23c
2239
a1c8
1f1c
a23c
a23c
9fd5
223c
a21b
216f
a23c
223c
a23c
a23b
a23c
a23c
223c
a23c
2239
a097
a22f
223c
a23c
a23c
a23c
1920
a00a
1f08
a0b9
a23c
2005
a23c
a239
a02b
2209
223c
21a1
a23c
9e19
223c
223c
9b12
223c
223c
2094
a23c
223c
223c
a23c
a205
a23c
223c
223c
223c
223c
a23c
a23c
a23c
223c
a0f0
a18f
1c57
a238
a23c
a1fa
223c
a23c
a11f
a23c
a23c
a23c
a23c
21d8
a237
9f83
223c
a23c
a22c
a23c
223c
223c
1347
223c
223c
a17e
2227
223c
223c
223c
221f
a23c
9f78
223c
2208
a23c
223c
223c
a17f
a23c
2054
a1ef
a198
a23c
a23c
a115
a23c
20f7
211b
223c
2234
2230
223c
a23c
a23c
223c
223c
a23c
223c
a239
223c
223c
218b
21ed
a23c
223c
223c
2210
1f09
8ddb
223c
9d40
223c
1468
a23c
223c
223c
223c
9d95
1f93
a131
9813
223c
a23c
223c
223c
223c
223c
a226
223c
a23c
a23c
2138
a23c
223c
a236
223c
a1b7
9d83
223c
1a36
223c
223c
a23c
1c74
202f
223c
a23c
a23c
2227
a203
223c
223c
223c
0ffd
a23c
223c
a23c
a1ae
a23c
9dd0
9d3c
a23c
a23c
a23c
a21c
223c
a23b
a23c
a23c
a23c
a23c
1ff2
a147
223c
223c
21e2
829a
a23c
201d
a22d
a234
a23c
a23c
223c
9d15
a23c
a23c
9eba
a23c
a23c
2211
223c
222f
2077
a297
a297
a294
a297
2297
210e
2297
a297
2297
a152
a297
2294
2061
2297
2297
a297
a297
9d41
a037
a297
2297
2297
2291
a1bc
a052
a1e4
2297
a297
2111
2297
1b81
9db8
2297
2297
a268
2297
1197
9e25
a297
a297
2297
2297
218b
a297
9db4
2297
2284
2297
a116
a297
a16a
1f72
a297
9fc1
9dab
1f0d
a252
a297
a297
2297
a297
2297
1d3c
2297
9f1f
a297
a297
2297
a297
9f12
a1a6
1b81
2297
a273
a28a
2254
1ab5
a297
a1af
a27e
a297
9f62
2297
2297
a297
1f54
2297
a297
a198
2297
9c6f
2297
2297
a254
2269
2076
a297
a26d
9faa
a0d2
1aa9
9c2f
a297
a27f
a03f
2292
202e
a297
a297
a297
9897
2297
2192
951d
2297
2104
a297
2297
217c
2297
a297
a297
1e3f
2179
2297
1b6a
217c
a297
2297
2297
2048
9d53
1dba
a297
2297
2297
a297
2297
9e81
a297
1838
18ac
2297
2297
a297
2297
a297
227a
a297
2297
a294
1fe4
1416
9b8a
893d
9f5b
2297
a1a0
a297
a297
215c
2010
2297
a297
2297
2260
9bd9
2297
9dc5
a196
0de0
2297
a297
2297
a297
2297
a297
a268
2297
2297
a297
2297
9e3e
2297
a297
a297
9f14
9d45
a297
9878
a297
2297
2297
1a6c
a296
a297
a297
9d0e
2297
a297
a297
a297
2297
2297
2297
a297
a276
a297
a297
2297
2297
2297
20bd
1c3c
1de7
a1e8
a1ce
a20c
222e
a297
a00f
a297
1de5
1e47
2268
2297
2297
a297
2297
a297
a21a
12e7
2234
a245
9f4f
a297
a1c1
2297
a297
2297
2015
a297
a297
a297
1ffd
a24a
2297
a297
a24d
a297
2297
1914
a1b3
a297
a297
2297
a297
2297
a297
2297
a297
a297
20ce
2015
2297
a25f
a297
2297
a297
9dc8
21e4
a247
a297
2297
2297
1702
2063
a297
1be2
2297
